/**
  ******************************************************************************
  * @file    qecg_data_params.c
  * @author  AST Embedded Analytics Research Platform
  * @date    2024-12-13T14:23:55+0800
  * @brief   AI Tool Automatic Code Generator for Embedded NN computing
  ******************************************************************************
  * Copyright (c) 2024 STMicroelectronics.
  * All rights reserved.
  *
  * This software is licensed under terms that can be found in the LICENSE file
  * in the root directory of this software component.
  * If no LICENSE file comes with this software, it is provided AS-IS.
  ******************************************************************************
  */

#include "qecg_data_params.h"


/**  Activations Section  ****************************************************/
ai_handle g_qecg_activations_table[1 + 2] = {
  AI_HANDLE_PTR(AI_MAGIC_MARKER),
  AI_HANDLE_PTR(NULL),
  AI_HANDLE_PTR(AI_MAGIC_MARKER),
};




/**  Weights Section  ********************************************************/
AI_ALIGNED(32)
const ai_u64 s_qecg_weights_array_u64[12987] = {
  0xbdbb5a89bfbf2168U, 0x3f0149e63f363117U, 0xbec59674bd54e50bU, 0x3f9b9bcfbe53e695U,
  0x3f8c014f3ed1b4afU, 0xbfaca6fa3f3216e3U, 0xbe89eacabe0f606aU, 0x3e8e5aadbe891275U,
  0x3f732bd03fcd8ad8U, 0x3f1f3dd43f7bd5f5U, 0xbd815908be65bdc6U, 0xbeaa3b41beb46b7dU,
  0x3ebc1d42be92977dU, 0xbf34ffe53c52c980U, 0x3fe1c9fbbf6a166dU, 0xbf73bb223f3ef116U,
  0xbf8d731d3e270e3aU, 0xbdc602863ed29a7cU, 0xbe9a5eeabec21c9cU, 0xbef2b2fbbe5e7192U,
  0xbe6ab7143e3f4d44U, 0xbd978078beca4252U, 0x3e529dbd3eb7e298U, 0x3e6a465a3ede7af5U,
  0xbf0215683eab4950U, 0x3d345945bca754cfU, 0xbee3593bbefe1767U, 0xbea0e0dbbf182764U,
  0x3c9e8432bf0e9fb3U, 0x3e8df2cf3cd31956U, 0xbead8cefbef2e01fU, 0xbd6fe25fbf073f97U,
  0xbdb3b8213e00756bU, 0x3e69d3683d9a8cecU, 0xbf44e8db3d9610eaU, 0x3df7d5103fa85214U,
  0x3fdd5edfbdb5990aU, 0xbcfcf940bda29506U, 0xbd5ca870be035498U, 0x3d86ff5d3dadef0cU,
  0x3d16767c3e03ffe8U, 0x3d8396d33eb4acd9U, 0xc00dca823c8a1230U, 0xbd8ba8023e291712U,
  0x3e996cfcbd85f2a5U, 0x3b7f57223d23a6d7U, 0xbccc19a83c960218U, 0x3ea024febc87d0e0U,
  0xbd9c2568bed42ef0U, 0x3ddc52503f8e5865U, 0xbf2875613d723050U, 0xbb8a3c20bf362682U,
  0x3f888d5abd8ed48aU, 0xbef344ffbe8879aeU, 0x3d22c2683de92d6cU, 0x3f85e449bc6adfb0U,
  0x3db19a24bf43bec6U, 0x3ec4bbe13dc41077U, 0x3eb9ff933c0cae40U, 0x3de29ad03f483ab8U,
  0xbee0eba83d0f4b88U, 0xbf67ef013d4e2686U, 0xbe00a32d3d6e6c38U, 0x3e21e1723de0319cU,
  0x3d14783fbf8ee8c7U, 0x3a1ad960bdeec5b8U, 0x3e639cf6bda72ed2U, 0x3de7a9003ee77da7U,
  0xbed14389bd1778b4U, 0xbfaaebb3be37317dU, 0xbdda732a3dd22a3cU, 0xbb4b79543dce6b26U,
  0x3d97de3ebf3dc6d7U, 0x3e8b88a6be17b562U, 0xbe5a97a33d0ecfb8U, 0xbc9030583ed3c3e3U,
  0xbfb5d7cd3d19c3ccU, 0xbeb969f6be6020c4U, 0xbdb98c623dcf15e6U, 0xbdd9f726bdbc9561U,
  0x3dfb2a4dbfa6d106U, 0xbd641af03d796ec7U, 0x3e9f07b03d3eda7cU, 0xbd431f3a3f3491cbU,
  0xbea237c93cc83b18U, 0xbfdc8f30bdccb542U, 0xbe0c54683df85470U, 0x3e2ee656bd4d7cd2U,
  0x3e0b97b0bea7732eU, 0x3e92b9473ed9118aU, 0x3f0d54c43c44c010U, 0x3de1a2ec3f9e3538U,
  0xbf096419bc88dc40U, 0xbdba0b20bea855b5U, 0x3d1a39c4bb99ac40U, 0x3e714cc8bdafe29aU,
  0x3d940cd53ec1b840U, 0x3e435d4cbf209843U, 0xbf392c5fbbe7a5a0U, 0xbd456f6c3eef9218U,
  0xbe765cdbbe0239e6U, 0x3d15a3fd3e21616fU, 0x3ce614d8bdbbb9a4U, 0xbf0a47b53d10953cU,
  0xbe1207dbbd805b6eU, 0x3f5258e33ee5a974U, 0xbd63aaa13da87ffaU, 0x3e1256fa3f175dcbU,
  0x3ef14dc7bd35615cU, 0x3e4084943f0672d4U, 0x3dd8cb183daafa04U, 0x3d46f16e3ded607cU,
  0x3d5eb9fe3e7fb4f0U, 0xbe0f069fbf8866e9U, 0xbf62f7f5bdb4575fU, 0x3d6b4534be275943U,
  0xbfa95bab3df54870U, 0x3e63f0a53e294e82U, 0xbd16adbebde5b4d9U, 0xbf80aaf33db4d7e8U,
  0xbb275ea8bdd7210dU, 0xbf030f873e6e3de8U, 0x3e140e663dfa0b1cU, 0xbcaf9f883d332a2fU,
  0x3ee30fa2be1088eeU, 0xbe04906b3e797947U, 0x3dabea72bdd78c3eU, 0xbe5a6a423d1c8c18U,
  0x3e0dd280bf365cf1U, 0x3e312de53f1b4d2aU, 0x3f11fde5bc836000U, 0xbdb40be03c8dec2dU,
  0xbf08d681bce3f5c4U, 0x3c525fd23eaa8abbU, 0xbe0c9ff13d1506b4U, 0x3eb0784f3e0fe460U,
  0x3dd77097be749774U, 0xbe9b15dabcc70b6dU, 0xbe3e1557bd76cc66U, 0xbe004c61bf0e42f8U,
  0xc0569aff3e0dfaa2U, 0x3cbda1783e00aa85U, 0xbdba4770bddcb5d8U, 0x3d9ae594be1128beU,
  0x3de95880bf7ceb8eU, 0x3eff43d8be7ac1c8U, 0x3ca2f61a3d7507f0U, 0xbc3801003e6df501U,
  0xc0ae32683d59c60cU, 0xbe7da185be9ee3a4U, 0x3e1220823da56070U, 0x3cab91f7bd9388b4U,
  0x3c62297cbeed4860U, 0x3cba208f3e01024fU, 0xbd303b233d262e94U, 0xbd8b5516bf16bc8bU,
  0x400e06503d9a4b4aU, 0xbf5bcdd8bd3cf03dU, 0x3d109138bdcb02beU, 0x3eac98c8bd98c423U,
  0xbd56cfd6bee2305aU, 0x3f6d49d9be68ac7aU, 0xbed716adbdf9dcdfU, 0xbdf6ad463ee92fb5U,
  0xbff06ef43e138b80U, 0x3d7633d83f3107d7U, 0x3d86e5a8bde15e3eU, 0xbe88c9f33e0a1d94U,
  0x3db682853eccd834U, 0xbf79e0f5bd4955f1U, 0x3e94238bbd5d0f18U, 0xbe128dddbe7111e4U,
  0x3fc83b023d288f6cU, 0x3edb3dcdbf408762U, 0xbdb0b8743e11fab6U, 0xbe17e65f3df0921cU,
  0xbd2e27b6bda01324U, 0xbf2962943ea79c21U, 0xbefe3e3b3c4d9b60U, 0x3b98f4c0bfb44300U,
  0x3f00e6e13ca49a98U, 0xbcbee577beaee597U, 0x3c0545603c89ae80U, 0xbc33324abcf099c0U,
  0x3d5344d8bed4e6c4U, 0x3eb25f953ea0702bU, 0xbdc923103d997400U, 0xbc9f4184be9a47e2U,
  0xbe3ab2753c020060U, 0x3c0e0ef9bf0b09e1U, 0x3d9327403d628e6cU, 0xbe4416e83dd8ac54U,
  0x3e1a5d653d2af6d8U, 0x3e6d0d93bec974bbU, 0xbde666813df3f724U, 0xbc46a7903e12962fU,
  0xc00e53f13d5b8ac8U, 0x3f020cdc3f16b330U, 0x3db3fe163deabfb0U, 0xbe4e1a61bded1216U,
  0xbe0f63bfbd0c02ebU, 0xbbb59f66bb3dc784U, 0xbd4ea0edbccdf3f4U, 0x3dfd35a4bd0d603aU,
  0xba91c7ee3ceeda20U, 0xbaeeb9a3bdab623cU, 0x3db7d6663da1de6cU, 0xbd9a0d41bd2111b0U,
  0x3da4deb8bdbf2f36U, 0xbde633163d8f355dU, 0x3dcdd5dcbd7cef6cU, 0x3c85e5c8bcda45f0U,
  0xbdb40df13dc4ef26U, 0x3d2356efbe40cf9eU, 0xbdc20ae2bcc0b6b0U, 0xbdfa6a483e01f8d2U,
  0xbd1225583d706294U, 0xbcc7b9203da4269eU, 0xbe05e0e0bd2ff168U, 0xbe11e663bd8d164fU,
  0x3d0597db3d4e85b0U, 0x3c5843b3bd80f584U, 0xbdb66a41bd93bb36U, 0xbd5bdf473d93b1a2U,
  0xbdd87c60bef021caU, 0x3ec45ba23d85a46bU, 0xbcf3a6203d307d0cU, 0x3d61954c3f8b3e7aU,
  0x3dac97a5bc605c40U, 0xbf7c74413dee66faU, 0xbe06e00e3d9cc742U, 0x3e5e1fea3da2c900U,
  0xbcddf080bf714a6aU, 0xbf0b9f9c3e5dc772U, 0x3e50859a3ded0898U, 0xbda8d5453e0e3d98U,
  0xbf43a17b3e02b860U, 0xbf20bd6cbf083da0U, 0xbde0489e3d98fa1aU, 0x3dc682a03d350f54U,
  0x3d4c4f84bdd597ccU, 0x3e458344bd9f42edU, 0x3e80dfd5b70d8000U, 0x3df2de943f16f06dU,
  0xbe9ef6803be3a980U, 0xbed970373eb30f0fU, 0xbe0d9bed3ce922e8U, 0x3dbf94de3d66b230U,
  0x3c64fef0bdad4746U, 0xbc95e398bdaae9c7U, 0xbde2e2d1bdca6458U, 0xbde1a24a3bbacc80U,
  0x3cfabb48bcc76e08U, 0x3e0d6a68bdf1d66cU, 0xbd1ae73a3ddcadc4U, 0xbe005dc43e0af97aU,
  0x3e0fe93e3c8c5a58U, 0x3d817df4bde29d03U, 0x3cff8e503dd8458cU, 0xbd56c3fcbdedcb37U,
  0xbdb7e501bc2501b0U, 0x3d762c90bdb4cf6cU, 0x3baeaa00bc7a03c0U, 0xbb92dc60bd0358fcU,
  0x3d940a48bdd006b5U, 0xbe085e0dbcac00f4U, 0xbd861d333d95c92eU, 0xbdf917d5bce011bcU,
  0x3da1aa743da75308U, 0x3d3feadc3d98bef4U, 0x3d2c7018bded424eU, 0xbd0f59043dedd5f0U,
  0xbdeba44cbf0838fdU, 0x3e85f498babb8e6fU, 0x3e829e783e0f0140U, 0x3df2fbbc3e70feddU,
  0xbf97db713d386488U, 0xbe14a556be9de06aU, 0xbd18c5e8bc83ea38U, 0x3cab194cbd4ffb3eU,
  0xbbd75d213e373435U, 0x3e689897be7d8cedU, 0x3e5e462d3daa15eaU, 0xbd4af1ba3f8ef1bfU,
  0xc01a96153d7977a8U, 0x3dc5552cbda687f5U, 0x3dc466f63e0214dcU, 0xbd15b6d53d87b176U,
  0x3d5266b63e1733a5U, 0xbe0a8699bf67a247U, 0xbe24f80bbb4cd400U, 0xbd7cf22ebbf593c7U,
  0x3fd60b95be09535fU, 0x3ea1cf70bd85b3c7U, 0xbdf586f83de299fcU, 0xbf6d81e23b100a40U,
  0xbd04159abb370c4bU, 0xbdd0a71b3d7c3e30U, 0x3d5e76dd3db2a158U, 0xbc589910bdf1a1f5U,
  0x3e1284f2bbc649e0U, 0x3cd02053bc420342U, 0x3bce15203dbcfa76U, 0x3d44264c3def3c48U,
  0xbc6361703e11b6fbU, 0xbea56584bd912146U, 0xba0b5eaebddcc547U, 0x3bf3c1e0be991c9dU,
  0xbf306b62bda18cb5U, 0xbd97027dbc9f033eU, 0x3df67b10bdb5c8f0U, 0xbdc1632e3d408750U,
  0xbd4c3396be2d109dU, 0xbe6cc1193d8d7330U, 0xbdb17a28bde6639aU, 0x3cf30af0be1afd38U,
  0xbf21eb093e0c53b0U, 0xbe301fbabe35d18aU, 0x3dc967f23d32f7fcU, 0x3d3180723e02c54cU,
  0x3e1372773f45d985U, 0xbda6ac2f3e1cfbc1U, 0x3e602516bde700f3U, 0x3d75a43cbf4b48a6U,
  0x3f2988443c9925d8U, 0x3f0a517abd9e606bU, 0xbd712b06bddf6903U, 0x3d800313bd915a5eU,
  0xbe0f7e09beb00a3cU, 0x3de76ba7be2fe3ccU, 0x3d8fd6ffbe0ecbf3U, 0x3e06a85ebf17a94fU,
  0xbf4806c03ab15c00U, 0xbf203fcbbe3e9ffcU, 0xbe0788913d1abec4U, 0x3d6802ec3d10440cU,
  0x3d7a5036bfd52f43U, 0x3da9d9fa3e474eb0U, 0x3e89d1f7bdde4d46U, 0x3ccf7e30bf7e16ffU,
  0xbf48e9b13cf976e0U, 0xbfcbf2ccbeb3e419U, 0x3d8732f0bd99f6f9U, 0x3e79dc20bc63eb50U,
  0xbc16176c3e491179U, 0x3e3d86e9bc24c8eaU, 0xbe878277bded9870U, 0x3dd72d6abe515e8aU,
  0x3e2352823cff3490U, 0x3ea824cf3ddac15aU, 0xbc034780bd9a8293U, 0xbdc460ba3d8e4e76U,
  0x3e05783abe081584U, 0xbf703ee73e200f48U, 0x3e9c5d563ca8d5a8U, 0x3d6f4c50bf063db8U,
  0x4016de363dd2ebf2U, 0xbe1f03d7bf6e004dU, 0x3d9c7488be0c81d6U, 0x3dd1cf90bdfb82dcU,
  0xbd598152beed0045U, 0xbcef3352bddaf33fU, 0x3dc7f5a63dade5d0U, 0x3dfd6f7cbcf3a324U,
  0xbf3bf4d13ca47f90U, 0xbec96346be955963U, 0xbd21068a3d5ee360U, 0x3e271d1fbca6f368U,
  0x3c7b6507bf799a1cU, 0x3d8b42ba3f7b9a13U, 0xbe2bb2953d97f256U, 0xbd9a79c7be8a6a2dU,
  0xbf244cdcbe0fdab8U, 0xbeaf6e94bf0b5ce7U, 0x3d2f08e0be01857cU, 0x3f1befe1bca22afcU,
  0xbd4f698fbe7c8b7fU, 0x3f431dbd3dbabae6U, 0xbfbe17ca3dcfcaaaU, 0xbd8a49303e218508U,
  0xc01ee66a3d4d3624U, 0x3deb0a8c3f43cdf5U, 0x3ce694803dc796dcU, 0x3e287e56bb9aeea0U,
  0x3d9ee14b3e43ccbbU, 0xbef5aaf33ebe3c13U, 0xbf1ea569bda68877U, 0x3ddf1f18bf4ac850U,
  0xbf77fdb0bbdab460U, 0x3e75b4d6be72f6bfU, 0x3e092cba3d89ba44U, 0x3e79d875bc8acee0U,
  0xbcb0fc873e84949bU, 0x3f402cb63e00d889U, 0xbee9e419bdc7cc23U, 0xbdf2ba913f230e4bU,
  0x3f16e9dd3d933f4cU, 0x3e42fb603f7b0582U, 0xbd42ca4ebd4c5d3eU, 0xbe971f9c3da3fd8cU,
  0xbcdee97abe58b04eU, 0xbe3ae5263f4c0647U, 0xc062b016bdb61807U, 0x3d901860beb36e22U,
  0xbe0783793cdfaff8U, 0xbe83e6bebed76f4fU, 0x3dd407e03c40aa70U, 0xbde5a14fbe05b670U,
  0x3de21eb5be714463U, 0x3f360bc33f8ef4b1U, 0xc0628e70bdc5eef7U, 0x3de3a934be61620bU,
  0xbf20288a3c088780U, 0xbe6d9c81be2fa0a8U, 0x3dc2781ebd8bc93cU, 0x3e33e518bde28178U,
  0x3db79e92bdb55a2dU, 0xbeb01213bded7098U, 0xbf3e5872be0d67a0U, 0xbd2171f6c01e27a0U,
  0x3f14bec93d0d0814U, 0xbe5058853f0d14acU, 0xbd95d71dbdf56298U, 0xbeac57973dbe0f94U,
  0xbccc6c933cfea765U, 0xbe36454a3ebdecbaU, 0xbe525b88bdf77990U, 0xbdaa91c9bf6ff183U,
  0xbe52cc6a3d8072d6U, 0x3e2996a83e8cebf7U, 0xbdb2b908be0e7036U, 0x3eadd2c1be033c72U,
  0xbd4bae2cbf4e79efU, 0x3ec636963ec385e4U, 0x3db4ce683d82b9b2U, 0xbd60fa92bfa1fbffU,
  0xbe00b90abe0314e0U, 0xbe85799ebe1df6a2U, 0xbc61bfb0bd4f7264U, 0x3eafd2e2be0d59dbU,
  0xbd7cd051bd25d17eU, 0x3f1769c2be86f8ecU, 0x3e1607c4bdd8c183U, 0x3e12a5a63d95146dU,
  0xbd6215d2bdbbd27fU, 0x3e1caa863e81413bU, 0xbe0e749c3bc7fd20U, 0xbeacb6a0bd7272acU,
  0xbe1121ad3e81996eU, 0xbf02532cbf85d8f9U, 0xbf5afa19bdd90adfU, 0x3d78fc18be836feeU,
  0xbbd316733d08cb80U, 0x3ead51ca3ce30f67U, 0xbbfe9940bd5f66f6U, 0xbf6f4a783d1c2a20U,
  0x3de7039c3e86e596U, 0xbed6f257beb19ae1U, 0xbf060120bd67e572U, 0x3dab980ebe73bdc2U,
  0x3eab0ffd3d3f4af8U, 0x3eb3ae0abe8eca80U, 0x3cba4c503d755554U, 0xbf196ecebdbd7a6aU,
  0x3e0bf8823f19b073U, 0xbefaf8053e05b90eU, 0x3d2568973c9c8a58U, 0x3dfbddacbee12aa4U,
  0x3f92e9eb3cccc218U, 0x3e874fb53f19b5c4U, 0xbda94e45be0b6c70U, 0x3cf0dc283d071570U,
  0x3c0552b0bf8ff869U, 0xbbb243a8be597ff3U, 0xbc26e923bd8ca6d9U, 0xbda3612abd6cde05U,
  0xbf550dfe3d6bc05cU, 0xbb9654f43ef72093U, 0xbdbef69e3d6594c4U, 0xbdb79a933d66c5b8U,
  0x3c255798bf288b78U, 0xbe622e6d3e8e3827U, 0x3ebf47003e11f5e0U, 0xbdbce370bf144c1dU,
  0xbec027283df50164U, 0xbf42898bbf1c25fdU, 0xbc1def30bd8a7860U, 0x3e926708bdcb1dceU,
  0x3dc27376bcc383ddU, 0xbd7a0c0b3d6ca922U, 0xbdbd2884bd5a26f2U, 0x3d91f33e3d8a9c95U,
  0x3cfbabf7bd1bf00aU, 0x3dffc86ebe21e4c0U, 0xbd021100bdc0a252U, 0x3dc84ba6be112971U,
  0x3c648530bda42ccbU, 0x3c9907483d98551aU, 0x3d492b9ebe012841U, 0xbcea214cbd4e977fU,
  0x3cd7c9273d9c37a6U, 0xbd77ad3dbdfeffc1U, 0x3bda0940bc5ef070U, 0xbe1716f5bdfae0bbU,
  0xbd24fd12bcca5718U, 0xbe1aa477bd8d39baU, 0xbe078f9abb5a1f00U, 0xbe0fb1f43d74b762U,
  0xbbba25453dc2748aU, 0xbd0908c53db8a0d4U, 0x3d77fe30bdb71024U, 0x3dd47a62bbe59e80U,
  0x3d71b9e03d26b455U, 0x3dc73ba13e877394U, 0x3e60ebcfbd45ee7aU, 0x3dcae2443cac0fcdU,
  0xbed440db3d28e02cU, 0x3e1ac2393e87605cU, 0x3d2c11703dd74484U, 0x3e2408893e0619acU,
  0x3d81a2c4bf1d2695U, 0xbd23fe4f3e268798U, 0x3e753be63e0e7264U, 0xbd026514bc527a4bU,
  0xbeaf3d9fbd91c8bcU, 0xbf5630ddbd7fc783U, 0x3e0e6ecc3e095998U, 0x3e42cfa43d4d0258U,
  0x3d02ce8cbfa2d755U, 0x3cba3444bdba4788U, 0x3dd7a3be3c810a18U, 0xbd9c925abefd6c69U,
  0xc04e1d07bd8f55f5U, 0xbf1868f4bf40540dU, 0x3cb64df03d7d8a94U, 0x3db1f3b93d87fab8U,
  0x3dbf4f12becf2f15U, 0x3f0ffd60beccd77eU, 0xbe4491013df2cb58U, 0xbdfe8bc43f9696f5U,
  0x3da18667bdf425bdU, 0xbe93df433e54c84eU, 0xbb9f4be0bddc8b98U, 0xbecd81763d3c26d0U,
  0x3d98f95a3e98bd6bU, 0xbfa0566ebea4c598U, 0x3e3578fb3b948c00U, 0xbe04fcec3ec6ad2eU,
  0x3f3e11a5bc900ca8U, 0x3ebe208cbf23bb0dU, 0x3dcdac60be1149d2U, 0xbeec3884be06575cU,
  0x3d60769e3e53c156U, 0xbbfff424be8cd850U, 0xbae4730f3d8de260U, 0xbdabbfe23f42eeeaU,
  0xbe58737b3df73d2cU, 0x3e4aa3d9bdd8da70U, 0x3df2603c3d5faad0U, 0xbe6d94853df28ad0U,
  0x3ddd07963f17cff3U, 0xbfb13326bef40fcbU, 0x3e35f4b0bdc0c9c2U, 0x3d7ad960bf94dc19U,
  0x402771403c47e4e0U, 0x3e5a1fd33f373e5aU, 0x3defa968bc66fde0U, 0xbf09a6b53c77d1a0U,
  0x3d767d6ebda558fcU, 0x3ee2c38dbe30dfe1U, 0x3c888b71bdfac3cbU, 0xbc8d99303f86d2beU,
  0xbf6aced43c9616a0U, 0x3ea350253efd568fU, 0x3ab03980bd8b497fU, 0xbe970ce9bdadcdfaU,
  0xbd2a22943e4daa14U, 0xbeb86e653e580a8aU, 0x3d99e563bdaa13feU, 0xbc006cf0be9f5eb5U,
  0x4003ebda3dbd599cU, 0xbcf92f9dbeea8127U, 0x3dc2cb12bddcfc12U, 0xbe088ca7bdf449f5U,
  0xbda7cfb43efb9b89U, 0xbf174cf4bec2bf34U, 0xbec4c5ccbdfb9230U, 0x3da77c16beca1febU,
  0x3f21209fbdec453cU, 0x3eee1f753ed5c514U, 0xbdb24d14be007201U, 0xbed3a4d3bdee815cU,
  0xbda93ae73d8edee0U, 0xbf700e643e1316e1U, 0xbe1d329d3d46f680U, 0x3d02a8dcbf3eeaebU,
  0x3f4ee9d93dfe144cU, 0xbe01cdf2bf060ed8U, 0x3e0aa5ce3e08a980U, 0xbb78be443c28f540U,
  0xbd753a2dbeee8bc4U, 0x3d86a4383f45afd3U, 0x3efb9b1b3ddfd9d4U, 0x3de1f580be49f6b2U,
  0x3f5e5dcebce7403cU, 0xbeabcfa3be896cfeU, 0x3cf04b30bd9f09bfU, 0x3f1bdb98be030a29U,
  0xbcc5f361bdb6ab29U, 0x3e533ee93ebd62c4U, 0x3ebd55df3df6f2d0U, 0x3cf56c90bebdb6daU,
  0x3e59b1ef3d1a57a0U, 0x3c2171eabea50cafU, 0x3df1a4f0bd190d88U, 0x3d1e05383d79daecU,
  0x3ddb9e023ecb7e01U, 0x3e37154dbeea976eU, 0xbf0df87abdd45566U, 0x3d911926be89c84bU,
  0xbfb99877bd82990eU, 0x3d4aea283f416cacU, 0x3dd360e6bce946c4U, 0xbe41f111bd4afe72U,
  0x3d9748cfbf578ca0U, 0xbf2057c53e96fdcdU, 0x3f057732bde9442dU, 0xbdaf12dcbfa02b8aU,
  0x3f445feebda60e6dU, 0xbf29b668bf0f9609U, 0x3de25f24bc2e37e0U, 0x3e6aeef03da7c398U,
  0xbd8578cebd01e62fU, 0x3d0117a43d225e4fU, 0xbe21fc54bdc661ceU, 0xbd9683a5bdb13c25U,
  0x3dbf0353bd92d71dU, 0xbdab510bbde0cdbfU, 0x3d6e7eb4bda0f98eU, 0x3d8151043d2272d0U,
  0x3de406983dc6dcbfU, 0x3d9ac27ebe1cedd9U, 0x3d8390503d2a9040U, 0x3e07ea36bd2e4803U,
  0xbe0084f0be0065a6U, 0x3d40e317bdf72c38U, 0x3dd15fa6bd9f37b4U, 0xbc869790bd3ab4f4U,
  0xbdfd566abdd5817dU, 0x3d1be3c7be1b8a31U, 0x3e014d14bd7b0b70U, 0x3be50280bde54426U,
  0xbdde79043db7648aU, 0xbe0d413ebd387b6eU, 0xbc230130bdc211ebU, 0xbd60f434bdfef7f0U,
  0xbe09c60d3eb51a52U, 0x3e9bf926beb384c9U, 0xbf8e2f11bd5e2ca2U, 0x3e087a023ef72a54U,
  0x3ff11e47bc85d740U, 0x3ef2edff3f40e4acU, 0xbbdabf403d9bc8faU, 0xbf2de5aabdb0ada1U,
  0xbc943d083e3a97deU, 0xbeacaaa0bd92d32fU, 0x3ce9a25f3c5b5690U, 0x3db67eca3df74f44U,
  0x3f8c0f64bd967c74U, 0x3e04c1213e71c6f5U, 0xbbb290003e0c2a3cU, 0xbe328828bd90dba4U,
  0x3d8f7235bec6f188U, 0xbe054d9c3e3eae8cU, 0xbd2a2175bd71917cU, 0xbe0bd6af3e6fe416U,
  0xbf46e3423d24a8d8U, 0xbe8cc8723e679b96U, 0xbcf120ecbe04384cU, 0xbe2c2e80bc8b22c8U,
  0xbbcfc0e7be7007e3U, 0x3ebe296fbeb6ab6eU, 0xbe460f98bce9e4ecU, 0x3ccc64283f1cf179U,
  0x3fa018133cb638f8U, 0xbeda791abf025db3U, 0xbd7620e2bd855628U, 0xbeb74be2bdf8eb12U,
  0xbdd8df563e9507e9U, 0x3dcc057fbea8b4eeU, 0xbf2155fc3d1067e0U, 0x3b47a1403cc1bb49U,
  0x3fdd349d3ded3cf8U, 0x3ea38cbc3ebdadc9U, 0x3e127876bd44175cU, 0x3dd093153db7029cU,
  0x3df86308bdc8ebebU, 0x3f0dea573eac811aU, 0xbe96012d3dbd6a46U, 0xbd06f9503d90bcedU,
  0x3ff2c2f33d2aad54U, 0xbd1ff600bec99d00U, 0x3cc10698bd131b7eU, 0x3e75c4bb3dbd648eU,
  0x3e0af43cbea92e5bU, 0xbf57a3203e518bcfU, 0xbe5bcae3be07bcd5U, 0x3df1de64bf517d96U,
  0x3f73f6e63d893470U, 0xbe6d69e8be876334U, 0x3da855023d13a50cU, 0xbd2d9e1e3d815a9aU,
  0x3e046b5cbf1308ecU, 0x3f431c503ed0e662U, 0xbd993f95bd9f1b52U, 0xbe05947e3deef00cU,
  0xbee49920bdb0894aU, 0xbe2c9bd9beb2ab48U, 0x3cc1cca0bbc99340U, 0x3eb79c2c3dbe5b80U,
  0xbe03ebb83e41195fU, 0x3e7b10a8bee0bb43U, 0xbeca4fcd3cf0cd00U, 0x3df8d2bc3eb66724U,
  0xbff506233da2084eU, 0x3e4fa6ca3ee80709U, 0x3e12fc743dba2ee6U, 0xbe0175fabd768034U,
  0xbc0230963e1290d0U, 0x3f16ecbb3eb8c06eU, 0x3eab7b90bd93ec0bU, 0xbdda71fa3f1a5d5aU,
  0xbfe30e413d53eba8U, 0x3f0766e4bd8c8460U, 0x3ce889e83df38ad8U, 0xbe3429783dc63154U,
  0x3c91b7483d842108U, 0xbf39b323be6c0691U, 0xbd9047b53dd66d90U, 0xbc443300bf8de5deU,
  0x3fb8d30a3d8d3148U, 0xbeb916913d568873U, 0x3dde0ebcbe0829d9U, 0xbe09fdc53bb080a0U,
  0x3c531472bf091373U, 0x3ee828343e297787U, 0xbe3ebf9ebc044780U, 0x3c49cc703c884058U,
  0xbec90163bc918228U, 0xbed5fb053ea6e874U, 0x3db4dcf4bdc1377cU, 0x3e3ad509bd9922beU,
  0xbc92d2bcbe3d6f72U, 0x3ed8b0623e22d8ceU, 0x3e30de72bccb0d7cU, 0x3c6380403f4873d5U,
  0xbf97d95cbcf66848U, 0x3e858f71bf020be0U, 0xbd8c33c43ce69048U, 0xbd8f9dadbd68ab18U,
  0xbdba1ea93d24c5d1U, 0xbe9ea65bbeeb887bU, 0xbf3568e3be07e33aU, 0xbdfe0164bdb4dec0U,
  0x3f8b57043dc1ca7cU, 0x3eecbc3c3ee90f35U, 0x3dd01ecc3dae945cU, 0xbea335d33cb35f60U,
  0xbcdfe0f83e1d1641U, 0x3ea5bb463edd3474U, 0x3f0b995cbc007060U, 0x3ce30c98bee39e90U,
  0x3f8499dc3d1ec214U, 0xbd988c723db4abb1U, 0x3d5dfbec3d9f169cU, 0x3ecf1408bdc937f0U,
  0xbdf6f53cbf771d9eU, 0x3f32b04e3f1da854U, 0x3f20915f3cb984f8U, 0x3dbc65babeb78dd5U,
  0xbf826c17bd25423eU, 0xbef80eb2be705d4fU, 0x3dd4a5a6bda8ddf5U, 0x3eddc34f3e12ebb2U,
  0xbdec70203e2126b0U, 0x3efbdd4fbe4f929eU, 0xbe957c083bc6eb00U, 0x3dd8d36c3e9d45c7U,
  0xc0595f81bde23754U, 0x3e2befe0be22a36bU, 0x3da86fb03da7eb26U, 0xbe180721bdfba73eU,
  0xbd90d0e33ea37c46U, 0xbe25ee51be93fe20U, 0xbedb300f3de741e4U, 0xbe13afdfbf2cd7c8U,
  0x3f42747bbde445a4U, 0x3e94b712bed59cdaU, 0x3e04e2b0be0256c8U, 0xbf0514563d8340deU,
  0xbe5824eb3b721149U, 0xbe48cc17bf0693abU, 0x3cbd45083ed06e74U, 0xbe13f4023d55ec84U,
  0xbdac1f2cbedbecd7U, 0xbe09ebf53d209406U, 0xbc3b98fdbe25760fU, 0x3da33e8d3eb861d1U,
  0x3eabeb743e4b9271U, 0xbe27cef5be9d2ef4U, 0xbe3a94e4bcaf34abU, 0xbe1e2347bebc17aaU,
  0xbda6684ebdf4671cU, 0xbe01bd74be695a6bU, 0xbdfbdab43e904270U, 0x3e697a0cbe8d3312U,
  0xc09e44afc0b20cbaU, 0xc06952b7c08ad777U, 0xbff974d9c02a80bcU, 0xbf3cb663bfa20c93U,
  0xbc677a2cbea77f58U, 0x3ed564c03e34962eU, 0x3f9a5b4d3f3d9e9eU, 0x40277d893fe32f3cU,
  0xbe78a869a98abb97U, 0xbaa78b99976979aeU, 0x8b97a89999686b75U, 0x7888c959eb8da98dU,
  0x6a88aab979b68c8aU, 0x7569d9a9b7cd898aU, 0x89979a9999baa8bbU, 0x96aaaba9c79d9999U,
  0x899c6a998978bac9U, 0xd579bc99cc9d99b8U, 0x9dcc5a99c97895b9U, 0xc6abba99bca8a9c8U,
  0xd8b88a99e9b7a7b9U, 0x7deb77b988d7c9b7U, 0xdaa999a9c9b9b99bU, 0x9fca789977a9a998U,
  0xdaa89999b9a9a8baU, 0xabcc8ba999a8a998U, 0xb9ab9a99e9bb97b9U, 0x7bb999c99baaa9b8U,
  0xb9aba989899688c8U, 0x9b8a8a99bca999b8U, 0xc888a989898d87b8U, 0x8c9b98a98788a998U,
  0x9977898989989799U, 0x98889889b8889998U, 0xab9ac999898888b8U, 0x979a8a89c99a89b8U,
  0x8977a99999a9c79aU, 0x789978898a7889a8U, 0xc87aa999798b97a9U, 0x999b9ab9ab7989a8U,
  0x86a99999a9a8979aU, 0x8998a98989aaa997U, 0xa8ac99a9a9aaaa89U, 0xa9aa87b98998a977U,
  0x98baca99b99bb889U, 0x8ab98999b9bab999U, 0xa8acb989898aca88U, 0x7b9998998a9c99a9U,
  0xb888c97989988aa8U, 0xab88a99989878999U, 0xab99a989b9898bb7U, 0x8997ba798b8a99a9U,
  0xa98aa889b9898b98U, 0xbb98bb99898a898aU, 0xab89a989b99acba9U, 0xab998a89aa89a99aU,
  0x9c9b9899a989cabaU, 0x8a99b8a99a9c9999U, 0x9b9a99a99999badaU, 0xa99aaba99b9aa9a9U,
  0x7ab9aab9899bb99aU, 0x8989b99999aaa998U, 0x899b8ab999a7a9aaU, 0xba9aa999899cb9a8U,
  0x99b8aaa989a9a8baU, 0x998889c98998b9c8U, 0xbabaaab9b9abb9abU, 0x9bba9aa999bab9b8U,
  0xbaa99ab9b99aa9abU, 0x89a999a999ba9999U, 0x9aa99aa9a99bb8abU, 0xa99a98b989aa9998U,
  0xaaa89aa9b9aa9899U, 0x9b9a9a999899a988U, 0x99989aa9a99b9889U, 0x8a999999989a9998U,
  0x98989ab999b97979U, 0x999b87b988889989U, 0xa99aaa9999a9aa89U, 0x9b989a9989999979U,
  0x8a88aa9999988a89U, 0x9a9888a989999979U, 0x8998a99989888989U, 0x8a88989988999979U,
  0xa8a8ba9999898988U, 0x9b88889989999989U, 0xb988a99989a98989U, 0x7889889988989989U,
  0x89889999a9989989U, 0x88aa888988999989U, 0x9988a98999888988U, 0x9998989988899979U,
  0x8998a99999879989U, 0x8898988988899979U, 0x9988a9a98989aa8aU, 0x9999989988999979U,
  0x9988a9998988aa8aU, 0x8898978988998979U, 0x9988a9a979878a89U, 0x9888988988899979U,
  0x9999999999999999U, 0x9999999999999999U, 0x9999999999999999U, 0x9999999999999999U,
  0x9999999999999999U, 0x9999999999999999U, 0x9999999999999999U, 0x9999999999999999U,
  0x9999999999999999U, 0x9999999999999999U, 0x9999999999999999U, 0x9999999999999999U,
  0x9999999999999999U, 0x9999999999999999U, 0x9999999999999999U, 0x9999999999999999U,
  0x9999999999999999U, 0x9999999999999999U, 0x9999999999999999U, 0x9999999999999999U,
  0x9999999999999999U, 0x9999999999999999U, 0x9999999999999999U, 0x9999999999999999U,
  0x9999999999999999U, 0x9999999999999999U, 0x9999999999999999U, 0x9999999999999999U,
  0x9999999999999999U, 0x9999999999999999U, 0x9999999999999999U, 0x9999999999999999U,
  0x9999999999999999U, 0x9999999999999999U, 0x9999999999999999U, 0x9999999999999999U,
  0x9999999999999999U, 0x9999999999999999U, 0x9999999999999999U, 0x9999999999999999U,
  0x9999999999999999U, 0x9999999999999999U, 0x9999999999999999U, 0x9999999999999999U,
  0x9999999999999999U, 0x9999999999999999U, 0x9999999999999999U, 0x9999999999999999U,
  0x9999999999999999U, 0x9999999999999999U, 0x9999999999999999U, 0x9999999999999999U,
  0x9999999999999999U, 0x9999999999999999U, 0x9999999999999999U, 0x9999999999999999U,
  0x9999999999999999U, 0x9999999999999999U, 0x9999999999999999U, 0x9999999999999999U,
  0x9999999999999999U, 0x9999999999999999U, 0x9999999999999999U, 0x9999999999999999U,
  0x9999999999999999U, 0x9999999999999999U, 0x9999999999999999U, 0x9999999999999999U,
  0x9999999999999999U, 0x9999999999999999U, 0x9999999999999999U, 0x9999999999999999U,
  0x9999999999999999U, 0x9999999999999999U, 0x9999999999999999U, 0x9999999999999999U,
  0x9999999999999999U, 0x9999999999999999U, 0x9999999999999999U, 0x9999999999999999U,
  0x9999999999999999U, 0x9999999999999999U, 0x9999999999999999U, 0x9999999999999999U,
  0x9999999999999999U, 0x9999999999999999U, 0x9999999999999999U, 0x9999999999999999U,
  0x9999999999999999U, 0x9999999999999999U, 0x9999999999999999U, 0x9999999999999999U,
  0x9999999999999999U, 0x9999999999999999U, 0x9999999999999999U, 0x9999999999999999U,
  0x9999999999999999U, 0x9999999999999999U, 0x9999999999999999U, 0x9999999999999999U,
  0x9999999999999999U, 0x9999999999999999U, 0x9999999999999999U, 0x9999999999999999U,
  0x9999999999999999U, 0x9999999999999999U, 0x9999999999999999U, 0x9999999999999999U,
  0x9999999999999999U, 0x9999999999999999U, 0x9999999999999999U, 0x9999999999999999U,
  0x9999999999999999U, 0x9999999999999999U, 0x9999999999999999U, 0x9999999999999999U,
  0x9999999999999999U, 0x9999999999999999U, 0x9999999999999999U, 0x9999999999999999U,
  0x9999999999999999U, 0x9999999999999999U, 0x9999999999999999U, 0x9999999999999999U,
  0x9999999999999999U, 0x9999999999999999U, 0x9999999999999999U, 0x9999999999999999U,
  0x9999999999999999U, 0x9999999999999999U, 0x9999999999999999U, 0x9999999999999999U,
  0x9999999999999999U, 0x9999999999999999U, 0x9999999999999999U, 0x9999999999999999U,
  0x9999999999999999U, 0x9999999999999999U, 0x9999999999999999U, 0x9999999999999999U,
  0x9999999999999999U, 0x9999999999999999U, 0x9999999999999999U, 0x9999999999999999U,
  0x9999999999999999U, 0x9999999999999999U, 0x9999999999999999U, 0x9999999999999999U,
  0x9999999999999999U, 0x9999999999999999U, 0x9999999999999999U, 0x9999999999999999U,
  0x9999999999999999U, 0x9999999999999999U, 0x9999999999999999U, 0x9999999999999999U,
  0x9999999999999999U, 0x9999999999999999U, 0x9999999999999999U, 0x9999999999999999U,
  0x9999999999999999U, 0x9999999999999999U, 0x9999999999999999U, 0x9999999999999999U,
  0x9999999999999999U, 0x9999999999999999U, 0x9999999999999999U, 0x9999999999999999U,
  0x9999999999999999U, 0x9999999999999999U, 0x9999999999999999U, 0x9999999999999999U,
  0x9999999999999999U, 0x9999999999999999U, 0x9999999999999999U, 0x9999999999999999U,
  0x9999999999999999U, 0x9999999999999999U, 0x9999999999999999U, 0x9999999999999999U,
  0x9999999999999999U, 0x9999999999999999U, 0x9999999999999999U, 0x9999999999999999U,
  0x9999999999999999U, 0x9999999999999999U, 0x9999999999999999U, 0x9999999999999999U,
  0x9999999999999999U, 0x9999999999999999U, 0x9999999999999999U, 0x9999999999999999U,
  0x9999999999999999U, 0x9999999999999999U, 0x9999999999999999U, 0x9999999999999999U,
  0x9999999999999999U, 0x9999999999999999U, 0x9999999999999999U, 0x9999999999999999U,
  0x9999999999999999U, 0x9999999999999999U, 0x9999999999999999U, 0x9999999999999999U,
  0x9999999999999999U, 0x9999999999999999U, 0x9999999999999999U, 0x9999999999999999U,
  0x9999999999999999U, 0x9999999999999999U, 0x9999999999999999U, 0x9999999999999999U,
  0x9999999999999999U, 0x9999999999999999U, 0x9999999999999999U, 0x9999999999999999U,
  0x9999999999999999U, 0x9999999999999999U, 0x9999999999999999U, 0x9999999999999999U,
  0x9999999999999999U, 0x9999999999999999U, 0x9999999999999999U, 0x9999999999999999U,
  0x9999999999999999U, 0x9999999999999999U, 0x9999999999999999U, 0x9999999999999999U,
  0x9999999999999999U, 0x9999999999999999U, 0x9999999999999999U, 0x9999999999999999U,
  0x9999999999999999U, 0x9999999999999999U, 0x9999999999999999U, 0x9999999999999999U,
  0x9999999999999999U, 0x9999999999999999U, 0x9999999999999999U, 0x9999999999999999U,
  0x9999999999999999U, 0x9999999999999999U, 0x9999999999999999U, 0x9999999999999999U,
  0x9999999999999999U, 0x9999999999999999U, 0x9999999999999999U, 0x9999999999999999U,
  0x9999999999999999U, 0x9999999999999999U, 0x9999999999999999U, 0x9999999999999999U,
  0x9999999999999999U, 0x9999999999999999U, 0x9999999999999999U, 0x9999999999999999U,
  0x9999999999999999U, 0x9999999999999999U, 0x9999999999999999U, 0x9999999999999999U,
  0x9999999999999999U, 0x9999999999999999U, 0x9999999999999999U, 0x9999999999999999U,
  0x9999999999999999U, 0x9999999999999999U, 0x9999999999999999U, 0x9999999999999999U,
  0x9999999999999999U, 0x9999999999999999U, 0x9999999999999999U, 0x9999999999999999U,
  0x9999999999999999U, 0x9999999999999999U, 0x9999999999999999U, 0x9999999999999999U,
  0x9999999999999999U, 0x9999999999999999U, 0x9999999999999999U, 0x9999999999999999U,
  0x9999999999999999U, 0x9999999999999999U, 0x9999999999999999U, 0x9999999999999999U,
  0x9999999999999999U, 0x9999999999999999U, 0x9999999999999999U, 0x9999999999999999U,
  0x9999999999999999U, 0x9999999999999999U, 0x9999999999999999U, 0x9999999999999999U,
  0x9999999999999999U, 0x9999999999999999U, 0x9999999999999999U, 0x9999999999999999U,
  0x9999999999999999U, 0x9999999999999999U, 0x9999999999999999U, 0x9999999999999999U,
  0x9999999999999999U, 0x9999999999999999U, 0x9999999999999999U, 0x9999999999999999U,
  0x9999999999999999U, 0x9999999999999999U, 0x9999999999999999U, 0x9999999999999999U,
  0x9999999999999999U, 0x9999999999999999U, 0x9999999999999999U, 0x9999999999999999U,
  0x9999999999999999U, 0x9999999999999999U, 0x9999999999999999U, 0x9999999999999999U,
  0x9999999999999999U, 0x9999999999999999U, 0x9999999999999999U, 0x9999999999999999U,
  0x9999999999999999U, 0x9999999999999999U, 0x9999999999999999U, 0x9999999999999999U,
  0x9999999999999999U, 0x9999999999999999U, 0x9999999999999999U, 0x9999999999999999U,
  0x9999999999999999U, 0x9999999999999999U, 0x9999999999999999U, 0x9999999999999999U,
  0x9999999999999999U, 0x9999999999999999U, 0x9999999999999999U, 0x9999999999999999U,
  0x9999999999999999U, 0x9999999999999999U, 0x9999999999999999U, 0x9999999999999999U,
  0x9999999999999999U, 0x9999999999999999U, 0x9999999999999999U, 0x9999999999999999U,
  0x9999999999999999U, 0x9999999999999999U, 0x9999999999999999U, 0x9999999999999999U,
  0x9999999999999999U, 0x9999999999999999U, 0x9999999999999999U, 0x9999999999999999U,
  0x9999999999999999U, 0x9999999999999999U, 0x9999999999999999U, 0x9999999999999999U,
  0x9999999999999999U, 0x9999999999999999U, 0x9999999999999999U, 0x9999999999999999U,
  0x9999999999999999U, 0x9999999999999999U, 0x9999999999999999U, 0x9999999999999999U,
  0x9999999999999999U, 0x9999999999999999U, 0x9999999999999999U, 0x9999999999999999U,
  0x978aa969b9daa88aU, 0xcba9ac99989979caU, 0xb9a9b98989ab7b98U, 0x8a8888c98b79a989U,
  0x7bbc7ab989876898U, 0x868a9889bca7a99aU, 0x7aa7bab989a9c8abU, 0x8789789987a8b9a9U,
  0x8aa979a989a8a8baU, 0x85a98999a9aba9b9U, 0x78bb69b9b987a6baU, 0xb58abab97ba9c9b8U,
  0xa99a7ab9b9bcc7cbU, 0xa9ca7a898ca7a9b7U, 0xc7ba9aa9b9c9c67bU, 0xadcb97b979b7b9a7U,
  0xc8a67a9989baa98aU, 0xadb988a976b899b7U, 0xc887b999b9bc9789U, 0xadcb878988969998U,
  0xb8aad999797c8c99U, 0xab897ba9ab99b9a9U, 0x87a8e99999a89b89U, 0x97a98899c9a9b9a9U,
  0xb899d999b98aba88U, 0x9ab8b7a9a999b999U, 0xb98999a989aaa8bbU, 0x8b99a79979acb99aU,
  0xb878a999898999baU, 0x8a98a989a899898aU, 0x8a8bc9898989a9a9U, 0x9998ba89aa8b899aU,
  0xa97aa989999a8c98U, 0xaaaabab9ca8989a9U, 0xa98ba97999899a98U, 0x9aa9b999bb8ca9cbU,
  0xa989b999a97a9999U, 0xaa98a9a9a88a898bU, 0x898ab989a9a99ba9U, 0x899ab879a99a99abU,
  0x9b97b989a9888b78U, 0x998799997988899bU, 0x9b98a989898ba8a8U, 0x8998a989a988a99bU,
  0xa989a9a9b98888a8U, 0x9b97b8898987999aU, 0xaa89a9a9b989bcb9U, 0xbab99a899a98999bU,
  0x9b9899a999979c79U, 0x8978a9898a99999bU, 0xaba8b999a99bcbb9U, 0x98baaa89aaaaa98bU,
  0x9aaab98999a8a9a9U, 0x9a89c9999a9a89baU, 0x98999989b9a99899U, 0x99bb88b9999a999aU,
  0x7a9a89a9897a98b9U, 0x989799898b889999U, 0xa98b9999a9aa989aU, 0x89aab8a999aa8999U,
  0xab789999a98b89aaU, 0x8ab989a9899979baU, 0xba7a898999ac9ab8U, 0xba9aba99a98a79a9U,
  0x999aa979c99c9999U, 0xbbb8abb9cb8889a9U, 0xc89ca989c9ac9a89U, 0xbccbbbb9bc9b89caU,
  0xc98ba999a9aa8999U, 0x9b9a99a9aa889999U, 0xa898a979b9887997U, 0x89a89989a88989baU,
  0x998ba989b99989a8U, 0x89b9aa89aa8999baU, 0xab8ab989999a8b99U, 0x99aaab99a999898aU,
  0x8877a869997a9977U, 0x678698a99878796aU, 0x7889b869a9787a86U, 0x68a8a969a899796aU,
  0x8989a87969a86997U, 0x8969bb89a979897aU, 0x79a8a989797779a7U, 0x8768ab89a989899aU,
  0x89c8aa89a9787998U, 0x6898aab99998a9aaU, 0x89b8aa89a98879a9U, 0x89b9aab99998998aU,
  0x99bba999898b79a7U, 0x989baba99a98a99aU, 0x99cbabc9b9b8a9abU, 0xc8bbac999bc9b9baU,
  0x9999999999999999U, 0x9999999999999999U, 0x9999999999999999U, 0x9999999999999999U,
  0x9999999999999999U, 0x9999999999999999U, 0x9999999999999999U, 0x9999999999999999U,
  0x9999999999999999U, 0x9999999999999999U, 0x9999999999999999U, 0x9999999999999999U,
  0x9999999999999999U, 0x9999999999999999U, 0x9999999999999999U, 0x9999999999999999U,
  0x9999999999999999U, 0x9999999999999999U, 0x9999999999999999U, 0x9999999999999999U,
  0x9999999999999999U, 0x9999999999999999U, 0x9999999999999999U, 0x9999999999999999U,
  0x9999999999999999U, 0x9999999999999999U, 0x9999999999999999U, 0x9999999999999999U,
  0x9999999999999999U, 0x9999999999999999U, 0x9999999999999999U, 0x9999999999999999U,
  0x9999999999999999U, 0x9999999999999999U, 0x9999999999999999U, 0x9999999999999999U,
  0x9999999999999999U, 0x9999999999999999U, 0x9999999999999999U, 0x9999999999999999U,
  0x9999999999999999U, 0x9999999999999999U, 0x9999999999999999U, 0x9999999999999999U,
  0x9999999999999999U, 0x9999999999999999U, 0x9999999999999999U, 0x9999999999999999U,
  0x9999999999999999U, 0x9999999999999999U, 0x9999999999999999U, 0x9999999999999999U,
  0x9999999999999999U, 0x9999999999999999U, 0x9999999999999999U, 0x9999999999999999U,
  0x9999999999999999U, 0x9999999999999999U, 0x9999999999999999U, 0x9999999999999999U,
  0x9999999999999999U, 0x9999999999999999U, 0x9999999999999999U, 0x9999999999999999U,
  0x9999999999999999U, 0x9999999999999999U, 0x9999999999999999U, 0x9999999999999999U,
  0x9999999999999999U, 0x9999999999999999U, 0x9999999999999999U, 0x9999999999999999U,
  0x9999999999999999U, 0x9999999999999999U, 0x9999999999999999U, 0x9999999999999999U,
  0x9999999999999999U, 0x9999999999999999U, 0x9999999999999999U, 0x9999999999999999U,
  0x9999999999999999U, 0x9999999999999999U, 0x9999999999999999U, 0x9999999999999999U,
  0x9999999999999999U, 0x9999999999999999U, 0x9999999999999999U, 0x9999999999999999U,
  0x9999999999999999U, 0x9999999999999999U, 0x9999999999999999U, 0x9999999999999999U,
  0x8c78786989686796U, 0x87657b79796869bfU, 0xa78b8869896c69c8U, 0x7886d9a98b6989baU,
  0x8d9cd999b97a6d97U, 0x89a98899be8889adU, 0x68bcca99b998b89aU, 0xaa9adb89cd9da9c9U,
  0x86a86aa9c9c79879U, 0x97b9b799a7aa99a8U, 0xb8a82aa979c8c69aU, 0xa77bc8b988b999a8U,
  0x56ba6aa979a7b38aU, 0xb68a79a98ca7a9b4U, 0x83cb7aa9d9b7b359U, 0x9dca66b98bb7b9a1U,
  0x98c78a99b9c78659U, 0xbbca48b946b89997U, 0x88b8a99999b8ac69U, 0xbabb79b977a6997aU,
  0xbba7b98989bc9ab9U, 0x9cba8bb9899989a9U, 0xca8ad979a9bda9a8U, 0x9d89baa9c98879baU,
  0x8aa9b98979877b97U, 0x896899999b8799baU, 0xccabd999a9997e88U, 0x89b8a9997a98a98dU,
  0x8c9889a989788ba9U, 0xb989bb89a89b998cU, 0x9ca899a9899898aaU, 0x87a8a8898699b98aU,
  0x9d89a9b99987a9bbU, 0x799ab789779a998aU, 0x8a9799a979bab9bbU, 0xba897aa987a89989U,
  0x9a9b99a9a9a8b87bU, 0x98bbd899aaab99a9U, 0xac89a99999b8bcabU, 0xa8b989999aaaa9abU,
  0x9c9aa9a9a9b9b87aU, 0x89a998a98aa999b9U, 0xbbaaa9a9b9b9c88bU, 0x9ab9a8a99a99a9baU,
  0xcaa7b9b98998a98bU, 0x8b9887a989a7999aU, 0x98989999b988aaa9U, 0x9abb8989589999b8U,
  0xbc98998989c87ba9U, 0x8a798a89789989abU, 0xbb98a999c9caaaaaU, 0x7ac8a789a899a99bU,
  0xab88a99989a789b9U, 0x89888a998888899aU, 0xc98a9999b988a9caU, 0x89b989998a9989c9U,
  0xba88a999b989abcaU, 0x99b88b999999899aU, 0x98899999c99998b9U, 0x99b789798989799aU,
  0xa999999999978a7aU, 0x9998a77987aa898bU, 0x89979999b9a9b99aU, 0x9aa88889a89a998bU,
  0x898a9999999ab99aU, 0x9899b889a99a89aaU, 0xa9989ab9a9b9a8abU, 0x9aac7899b8a9a9caU,
  0xcb999a9999baa8a9U, 0x8c89799989a999baU, 0xcb9a9aa9b9b8a9cbU, 0x8bc9888999a9a9baU,
  0xac9a89a9b9a9a9aaU, 0x9ab9899988a9a9aaU, 0x9c999aa9b9aa9baaU, 0xb9ba999998bba99bU,
  0xa897a9a9a9bba96aU, 0x9aa89799b6b9997bU, 0xa7aaa999999c8979U, 0x9a89b999c89a899bU,
  0x9abaa9a99998aaa9U, 0xaa8bbb99c99ba99bU, 0x99b9aaa999a9aabaU, 0x9a7abba9b99ab9abU,
  0xa9bbaaa9a99cab99U, 0xabaaaaa9b9a9b9abU, 0x8ab89ab9c9bbaa9bU, 0xaaa999a9a9b9b9aaU,
  0x99c99ac9b9aa8aacU, 0xa99cabb9a9c9b9aaU, 0x9acaaad9d9baababU, 0x89cdaa99a8cac9abU,
  0x9999999999999999U, 0x9999999999999999U, 0x9999999999999999U, 0x9999999999999999U,
  0x9999999999999999U, 0x9999999999999999U, 0x9999999999999999U, 0x9999999999999999U,
  0x9999999999999999U, 0x9999999999999999U, 0x9999999999999999U, 0x9999999999999999U,
  0x9999999999999999U, 0x9999999999999999U, 0x9999999999999999U, 0x9999999999999999U,
  0x9999999999999999U, 0x9999999999999999U, 0x9999999999999999U, 0x9999999999999999U,
  0x9999999999999999U, 0x9999999999999999U, 0x9999999999999999U, 0x9999999999999999U,
  0x9999999999999999U, 0x9999999999999999U, 0x9999999999999999U, 0x9999999999999999U,
  0x9999999999999999U, 0x9999999999999999U, 0x9999999999999999U, 0x9999999999999999U,
  0x9999999999999999U, 0x9999999999999999U, 0x9999999999999999U, 0x9999999999999999U,
  0x9999999999999999U, 0x9999999999999999U, 0x9999999999999999U, 0x9999999999999999U,
  0x9999999999999999U, 0x9999999999999999U, 0x9999999999999999U, 0x9999999999999999U,
  0x9999999999999999U, 0x9999999999999999U, 0x9999999999999999U, 0x9999999999999999U,
  0x9999999999999999U, 0x9999999999999999U, 0x9999999999999999U, 0x9999999999999999U,
  0x9999999999999999U, 0x9999999999999999U, 0x9999999999999999U, 0x9999999999999999U,
  0x9999999999999999U, 0x9999999999999999U, 0x9999999999999999U, 0x9999999999999999U,
  0x9999999999999999U, 0x9999999999999999U, 0x9999999999999999U, 0x9999999999999999U,
  0x9999999999999999U, 0x9999999999999999U, 0x9999999999999999U, 0x9999999999999999U,
  0x9999999999999999U, 0x9999999999999999U, 0x9999999999999999U, 0x9999999999999999U,
  0x9999999999999999U, 0x9999999999999999U, 0x9999999999999999U, 0x9999999999999999U,
  0x9999999999999999U, 0x9999999999999999U, 0x9999999999999999U, 0x9999999999999999U,
  0x9999999999999999U, 0x9999999999999999U, 0x9999999999999999U, 0x9999999999999999U,
  0x9999999999999999U, 0x9999999999999999U, 0x9999999999999999U, 0x9999999999999999U,
  0x9999999999999999U, 0x9999999999999999U, 0x9999999999999999U, 0x9999999999999999U,
  0x9bb99a89a98a9989U, 0x9a99a7b997a8a94cU, 0x777779d9c986d87cU, 0xa8dc7879c99b89b9U,
  0xd88a9969a9b757c5U, 0x8896ca89cb6b79b7U, 0xcbbb79b9896998d9U, 0x868b9ac9cb88c9c7U,
  0xb9cb6ab9b98a96cbU, 0xb7bc7ab979b6c9a7U, 0xcdb96ac999d87bbdU, 0x9cbb89a978c9b988U,
  0xba8779b9b9b8b78cU, 0x6dcc86a966b79978U, 0xc977d99979aa7b8bU, 0x9b897789678a998aU,
  0x789bd999897c6a88U, 0xc9798bb9ac7b9989U, 0x8aabd989a9898bb7U, 0x89baba99db8d999aU,
  0x7988da8999a87aa8U, 0xaa799b89b888999aU, 0x8aabd989a9797a98U, 0x9a8aaba9ab8c99abU,
  0xb9bacab989c78b78U, 0x7b89b88979acd97cU, 0xabbbd9a9a9a9cd8aU, 0x9c99c8b9b8aaa97cU,
  0x9ca8998999c79cc8U, 0xc9989c99baabc98bU, 0xaa9aa989a98b88b7U, 0x88988b89a9a9a9b9U,
  0xb99aa979999998a9U, 0x9a99b999998b99b8U, 0xbb89a999b9999bb8U, 0xbac99b898a99898aU,
  0xaa89b9899998b8baU, 0xaba89a899b8889b9U, 0xca889989a9b98ca8U, 0xaba989898988dab9U,
  0xcb788989b9aa99baU, 0x9bc99aa9a8a8999bU, 0xdb79b87999aa9cdaU, 0xcb998ca9898c699aU,
  0x8ba98979b988a9b8U, 0x98b89a79baacb9b9U, 0xab89b979b988a9b8U, 0xbb999a89898c89b8U,
  0xb9999979a9899897U, 0xa9a98999a989b9b8U, 0xa898998999b9aa98U, 0xa98888c9888a8998U,
  0x78898999b9a8b98aU, 0x99b99999b99aa998U, 0x989a89c98989b88bU, 0x899ba89999a999b8U,
  0xaa8999a9999c9b99U, 0x9a99b8a9978a8979U, 0x989b99798988b996U, 0xd97bac99ba6aa9b9U,
  0x89aa8ab999a9a989U, 0x9798a8a9a989c999U, 0x87b9b9b99998b87bU, 0x988989899aa9b999U,
  0xa79a9ac979a9b96bU, 0xb97aa7a9abbab989U, 0x779c99b97998d89cU, 0x988898b99ac99998U,
  0x7b8a7989a999a8c7U, 0xb7bcab89ab7999c8U, 0x799b8999998aa7bbU, 0x78a7baa9998889c8U,
  0x9aca9aa9b9ab9a8aU, 0xb9bacbc998b9c988U, 0x89ba8999a9aaa9a8U, 0xa8bbaab998a989b8U,
  0xcaaa99a999ac9a98U, 0xcbba9aa998a9a9c8U, 0xc9baa9a9b9cdcb8aU, 0xccaaaaa9a8baa9b8U,
  0x899b999989989999U, 0xda7aaab9aa9a89b8U, 0x78cc9aa9a999998bU, 0xa98b99c99ab9b9c8U,
  0xa9baaaa9a9cc8a89U, 0xcc9baab998b9b9a8U, 0x88bbaaa989aabb8bU, 0x9a7ab9b9aaaa9998U,
  0x78cb9ab989c88a8aU, 0xa87ab9b99ac9c9b8U, 0x78bd9ab989bcb999U, 0xa98ca9b99ba8b9c8U,
  0x6ab989c97988778aU, 0x877b978999bab9a7U, 0x99b79aa9a9b7977aU, 0x8899888988c69988U,
  0x88b789b9b9bb9a7bU, 0xa9c888c966bca979U, 0x8bbc79a9a9a87b8aU, 0xc98bcbb9acbe998bU,
  0x8bba7aa999a9caaaU, 0xad9adbb99ca9a9a8U, 0x98aa8a9979a9b88aU, 0x8b8978999b9899c7U,
  0x9797898999a78779U, 0x8a998899878989b7U, 0xca98a999b97b8b78U, 0xa7b888a977898999U,
  0xbbbbc9a9a97a9e89U, 0x8788a7b99a9cb98cU, 0x7abbdab9b9999d9bU, 0x9798cb99bcadb98cU,
  0x89aacab9c9a8ab9bU, 0x99b9c99989bca98cU, 0x98a86aa9a9a9989aU, 0x8aa8b8a987aaa998U,
  0xb99b7999a9bb9abbU, 0xbaaa8cb9b9a799a9U, 0xb9b89a99d9a7a898U, 0x8ad9ab89b8bcb9b9U,
  0x9ab89a9999b8ba99U, 0x999b88a998aca9baU, 0xb897999989a9bb99U, 0xbbbaa8c98aa899b9U,
  0xb8b98999b978a688U, 0x98b878998b8899a9U, 0xba9ab9a9c99a9bc9U, 0xb9a99b99ab9d99aaU,
  0xabab99a999cabaabU, 0x9ba9c989bbbab9bbU, 0xca9999b9a988c9cbU, 0x9ba879b989a7a9aaU,
  0xbbaa79999998b7dbU, 0x98a88a999b97a9c8U, 0x999a8ab9b98986abU, 0x98ab78898a99a9a8U,
  0xac9baa9989abbbcaU, 0x8a98d9a9a9aba9baU, 0xb99a799989ab87a9U, 0xa8799bd9ba9899c8U,
  0x88aa7a99b9aa9699U, 0xb8c99ba9bba8a9c8U, 0xaaab9a99a9bb9989U, 0xbbaa9ac9aaa9a9a9U,
  0xab9b89a9a98ba9aaU, 0xbaaa8ba9bbb9b9baU, 0x89ba9aa9999ab98bU, 0x89a8a999aba7b9b9U,
  0xba99c9a999baca7bU, 0xabbb8899aaa9999aU, 0xa989a9999999a9aaU, 0x9a889ba9bb899999U,
  0x9bbb999999a8abb9U, 0xaa89cb799b9a9989U, 0xaa9aa989999a99a9U, 0x999899a98a8999a9U,
  0xaa8aa999b97a8a98U, 0x99a8aa89ac8bb999U, 0x799b9999a979a989U, 0xa798c9799a99a989U,
  0x988ba999898baa9bU, 0x9999a98988aa997aU, 0xa887a989a99aaa89U, 0xaa9a9aa997998989U,
  0x989b998979787987U, 0x9968aa79ab8a89a9U, 0x87ba898989888868U, 0x7788a7899a899988U,
  0x99a9899999979999U, 0xb98ba9c9889a9988U, 0x89998999a9979989U, 0x9899989989a99978U,
  0x99898999c9899978U, 0x87b8988988a98988U, 0xa9989999c999b989U, 0x9ac8988988ba8979U,
  0xaa8899a9a998aa8aU, 0xba98a8a9889b8969U, 0x9a8a98899987aa89U, 0xa998a989988a8979U,
  0x8989988999879a78U, 0x8898a889987a7979U, 0x898998899987aa79U, 0x8888a889898a8979U,
  0x9999999999999999U, 0x9999999999999999U, 0x9999999999999999U, 0x9999999999999999U,
  0x9999999999999999U, 0x9999999999999999U, 0x9999999999999999U, 0x9999999999999999U,
  0x9999999999999999U, 0x9999999999999999U, 0x9999999999999999U, 0x9999999999999999U,
  0x9999999999999999U, 0x9999999999999999U, 0x9999999999999999U, 0x9999999999999999U,
  0x9999999999999999U, 0x9999999999999999U, 0x9999999999999999U, 0x9999999999999999U,
  0x9999999999999999U, 0x9999999999999999U, 0x9999999999999999U, 0x9999999999999999U,
  0x9999999999999999U, 0x9999999999999999U, 0x9999999999999999U, 0x9999999999999999U,
  0x9999999999999999U, 0x9999999999999999U, 0x9999999999999999U, 0x9999999999999999U,
  0x9999999999999999U, 0x9999999999999999U, 0x9999999999999999U, 0x9999999999999999U,
  0x9999999999999999U, 0x9999999999999999U, 0x9999999999999999U, 0x9999999999999999U,
  0x9999999999999999U, 0x9999999999999999U, 0x9999999999999999U, 0x9999999999999999U,
  0x9999999999999999U, 0x9999999999999999U, 0x9999999999999999U, 0x9999999999999999U,
  0x9999999999999999U, 0x9999999999999999U, 0x9999999999999999U, 0x9999999999999999U,
  0x9999999999999999U, 0x9999999999999999U, 0x9999999999999999U, 0x9999999999999999U,
  0x9999999999999999U, 0x9999999999999999U, 0x9999999999999999U, 0x9999999999999999U,
  0x9999999999999999U, 0x9999999999999999U, 0x9999999999999999U, 0x9999999999999999U,
  0x9999999999999999U, 0x9999999999999999U, 0x9999999999999999U, 0x9999999999999999U,
  0x9999999999999999U, 0x9999999999999999U, 0x9999999999999999U, 0x9999999999999999U,
  0x9999999999999999U, 0x9999999999999999U, 0x9999999999999999U, 0x9999999999999999U,
  0x9999999999999999U, 0x9999999999999999U, 0x9999999999999999U, 0x9999999999999999U,
  0x9999999999999999U, 0x9999999999999999U, 0x9999999999999999U, 0x9999999999999999U,
  0x9999999999999999U, 0x9999999999999999U, 0x9999999999999999U, 0x9999999999999999U,
  0x9999999999999999U, 0x9999999999999999U, 0x9999999999999999U, 0x9999999999999999U,
  0x9999999999999999U, 0x9999999999999999U, 0x9999999999999999U, 0x9999999999999999U,
  0x9999999999999999U, 0x9999999999999999U, 0x9999999999999999U, 0x9999999999999999U,
  0x9999999999999999U, 0x9999999999999999U, 0x9999999999999999U, 0x9999999999999999U,
  0x9999999999999999U, 0x9999999999999999U, 0x9999999999999999U, 0x9999999999999999U,
  0x9999999999999999U, 0x9999999999999999U, 0x9999999999999999U, 0x9999999999999999U,
  0x9999999999999999U, 0x9999999999999999U, 0x9999999999999999U, 0x9999999999999999U,
  0x9999999999999999U, 0x9999999999999999U, 0x9999999999999999U, 0x9999999999999999U,
  0x9999999999999999U, 0x9999999999999999U, 0x9999999999999999U, 0x9999999999999999U,
  0x9999999999999999U, 0x9999999999999999U, 0x9999999999999999U, 0x9999999999999999U,
  0x9999999999999999U, 0x9999999999999999U, 0x9999999999999999U, 0x9999999999999999U,
  0x9999999999999999U, 0x9999999999999999U, 0x9999999999999999U, 0x9999999999999999U,
  0x9999999999999999U, 0x9999999999999999U, 0x9999999999999999U, 0x9999999999999999U,
  0x9999999999999999U, 0x9999999999999999U, 0x9999999999999999U, 0x9999999999999999U,
  0x9999999999999999U, 0x9999999999999999U, 0x9999999999999999U, 0x9999999999999999U,
  0x9999999999999999U, 0x9999999999999999U, 0x9999999999999999U, 0x9999999999999999U,
  0x9999999999999999U, 0x9999999999999999U, 0x9999999999999999U, 0x9999999999999999U,
  0x9999999999999999U, 0x9999999999999999U, 0x9999999999999999U, 0x9999999999999999U,
  0x9999999999999999U, 0x9999999999999999U, 0x9999999999999999U, 0x9999999999999999U,
  0x9999999999999999U, 0x9999999999999999U, 0x9999999999999999U, 0x9999999999999999U,
  0x9999999999999999U, 0x9999999999999999U, 0x9999999999999999U, 0x9999999999999999U,
  0x9999999999999999U, 0x9999999999999999U, 0x9999999999999999U, 0x9999999999999999U,
  0x9999999999999999U, 0x9999999999999999U, 0x9999999999999999U, 0x9999999999999999U,
  0x9999999999999999U, 0x9999999999999999U, 0x9999999999999999U, 0x9999999999999999U,
  0x99baa9c9999aa99aU, 0x8a98a6a988aab948U, 0x888699c9a999b98bU, 0xa99c6889b6a8a999U,
  0x9a98888989c5b998U, 0x8667a889897c9999U, 0xba9cb9c97978b9caU, 0xb678bba98ca9a9b8U,
  0x9aac89c9a98eb8bcU, 0xc8bb8c99aaa8b9a7U, 0xcca87ac999cb9abdU, 0xbba9cb89a9b8a9a7U,
  0x8c9a59b98988b6bbU, 0xc9ab89b99896a9b7U, 0xcbb899b9b99b799cU, 0x899966a978b7c9b8U,
  0x87cbe9c9c9dc7b7cU, 0x6dca78c977c8b96aU, 0xaa96c97999cc7ea8U, 0x8ebba9c9d69e797cU,
  0x797cb869d98c6bb6U, 0xb798ed89ba6c699bU, 0x9a9bc979796c5ab7U, 0x9779bb99bb7b89caU,
  0x79aa8a9999b86787U, 0x97988a898a9a999aU, 0xbaa9da89b9889b78U, 0x8ba8b8999898899aU,
  0x9bb89a8989888a97U, 0xb9999a99a88daa8bU, 0xb988c999c9ab9bb9U, 0x9ca88b99b89999abU,
  0x9b9989999999acbaU, 0xb8a9ca89aa8a999bU, 0x897999b9b9898999U, 0x9ab8a9999a98997bU,
  0x987aa9a9898aaa8bU, 0xba999999bb8a99abU, 0x879999a9a988ab79U, 0xb9abb989a98ab98aU,
  0xba88a899999aba9aU, 0x9aaa8889989aa98cU, 0xb78b98897988abbaU, 0xa879aa898a9979aaU,
  0xb79ab989b99aaa79U, 0xbab99ba9cbac99abU, 0x8abab989b999aa89U, 0xaab9db89ba9bb98aU,
  0x89a9a99999999998U, 0xb99a9b89db9bc99aU, 0xc79aba9999b98b8aU, 0x8b8ac8c9baaaa98aU,
  0x889a8999898898a9U, 0x999aca99baba8999U, 0xcab8aab999989889U, 0x8a9a9889a887a9a8U,
  0xbaa899a989a789b9U, 0x899989899899a999U, 0xcb99b999b9cacaa9U, 0x9ab9a9998998998aU,
  0xab8c9999a9a9a9baU, 0x8998b9899989a999U, 0xbb89b899998aa8bbU, 0x7b969989998999a9U,
  0xbc7a99b9899aa99bU, 0x998998799a9a89b9U, 0xaa7b99a98989b8abU, 0x888789898b8999a9U,
  0x89ac99b9897aa89cU, 0x9887ba799b9ab979U, 0x9b9c9ab989a8b9abU, 0xd99caa899b999989U,
  0x9bb89989a989ca7aU, 0x99b6b889a8c9c959U, 0x797888897976d88cU, 0x9778a8b9a9a97989U,
  0x9b688779a98869a7U, 0x88c79979aa7879a9U, 0x8c798789896779b7U, 0x8776aa79ab6979b9U,
  0xb9898879d95c9897U, 0x78e688799a7879b9U, 0xcaa89879d9ac9987U, 0x8cd9989998798979U,
  0x8a8c887979888988U, 0xc86b98a9aa7a8999U, 0xa8aa89a999baa889U, 0x98979879aaa9a999U,
  0x8b8a99c99998a98cU, 0xb99a98a999b99988U, 0x9a7898a9a9a8b98aU, 0x89a7987998a97989U,
  0x9999999999999999U, 0x9999999999999999U, 0x9999999999999999U, 0x9999999999999999U,
  0x9999999999999999U, 0x9999999999999999U, 0x9999999999999999U, 0x9999999999999999U,
  0x9999999999999999U, 0x9999999999999999U, 0x9999999999999999U, 0x9999999999999999U,
  0x9999999999999999U, 0x9999999999999999U, 0x9999999999999999U, 0x9999999999999999U,
  0x9999999999999999U, 0x9999999999999999U, 0x9999999999999999U, 0x9999999999999999U,
  0x9999999999999999U, 0x9999999999999999U, 0x9999999999999999U, 0x9999999999999999U,
  0x9999999999999999U, 0x9999999999999999U, 0x9999999999999999U, 0x9999999999999999U,
  0x9999999999999999U, 0x9999999999999999U, 0x9999999999999999U, 0x9999999999999999U,
  0x9999999999999999U, 0x9999999999999999U, 0x9999999999999999U, 0x9999999999999999U,
  0x9999999999999999U, 0x9999999999999999U, 0x9999999999999999U, 0x9999999999999999U,
  0x9999999999999999U, 0x9999999999999999U, 0x9999999999999999U, 0x9999999999999999U,
  0x9999999999999999U, 0x9999999999999999U, 0x9999999999999999U, 0x9999999999999999U,
  0x9999999999999999U, 0x9999999999999999U, 0x9999999999999999U, 0x9999999999999999U,
  0x9999999999999999U, 0x9999999999999999U, 0x9999999999999999U, 0x9999999999999999U,
  0x9999999999999999U, 0x9999999999999999U, 0x9999999999999999U, 0x9999999999999999U,
  0x9999999999999999U, 0x9999999999999999U, 0x9999999999999999U, 0x9999999999999999U,
  0x9999999999999999U, 0x9999999999999999U, 0x9999999999999999U, 0x9999999999999999U,
  0x9999999999999999U, 0x9999999999999999U, 0x9999999999999999U, 0x9999999999999999U,
  0x9999999999999999U, 0x9999999999999999U, 0x9999999999999999U, 0x9999999999999999U,
  0x9999999999999999U, 0x9999999999999999U, 0x9999999999999999U, 0x9999999999999999U,
  0x9999999999999999U, 0x9999999999999999U, 0x9999999999999999U, 0x9999999999999999U,
  0x9999999999999999U, 0x9999999999999999U, 0x9999999999999999U, 0x9999999999999999U,
  0x9999999999999999U, 0x9999999999999999U, 0x9999999999999999U, 0x9999999999999999U,
  0xad7aa989896b9aa8U, 0xa9968a999878897cU, 0x7b7698a9c9778a87U, 0x88ca9a79e7ac997cU,
  0xbc9ba89979a6abc8U, 0x9767db69a98da98bU, 0xb988e8b98988acb9U, 0x9777bb89b89a898aU,
  0x6879c9b9b98c7ca9U, 0x96c8ba89d88b898aU, 0x8c7979b99997799bU, 0xa7b9ca79c98b799aU,
  0xdc776999a99697b9U, 0x8ab99799a7897998U, 0xdd77a8898999a89aU, 0x789877895677799aU,
  0xbb89d989898bbbc8U, 0x99897b998b789abaU, 0xa99be989c9898bb7U, 0x97a889a9cd8b9abaU,
  0x78abeaa999a69d89U, 0x86789999abacaaaaU, 0x98a8dac9b9aaaa8cU, 0x6aaaa7a9d8aea98aU,
  0x7897b9b989a6bb8cU, 0xa989cbb9b89e8989U, 0xa9a98999b98a8989U, 0xb9c9b8a989ac8988U,
  0xcba979a999b887a9U, 0x97b9a9a9ba98c998U, 0xc78889c969899bbbU, 0xa8798b89baa98998U,
  0xc7bb99b999b9a79bU, 0x999ab9b99bbdb9b7U, 0xab99c9c9a9bbcbacU, 0xbbb99a9989a8997aU,
  0xbb98c9b9a9b8c9bcU, 0x9c98aba9c9b8c998U, 0xb88ca9a999a7ab9aU, 0xcb9bab799c9cb99aU,
  0x99a8b9a999b8ca8bU, 0x9aaa88898b98b98aU, 0x89aca9a9a999bbabU, 0x8aa9a9999cba9999U,
  0xbaa9b9a9a9abbb8bU, 0xbbacb8c9a9ab999aU, 0x9aa9ba99c9baab89U, 0xbcabcab9baaa998aU,
  0x78caa9999998a999U, 0xb999aa99dcbcc999U, 0xc8b9aa9999999b99U, 0xababbab9bbaca998U,
  0x889889b989a988aaU, 0x7a89b8a999baa997U, 0xb798a9a9b998a88aU, 0x7bbc8879788979a7U,
  0xa9999989998a8b89U, 0xbb8aa9c98a7b99a8U, 0x999aa9c9a98cb98aU, 0x9aa889a9ab9ab989U,
  0xa99a9ac9a999abbaU, 0xb999baa9b99abab8U, 0x98c9b9a9a988a89aU, 0xaba9aba9bbaac9a8U,
  0xb99c9aa979aaa9aaU, 0xb98ba9b9acaba9a8U, 0xa8a899b999a9c9cbU, 0x999988b989b9b9b7U,
  0xa9b88aa9b99988caU, 0x7aaa98998999a9c7U, 0xa9998aa999ab98baU, 0x9b9c89a9889889b7U,
  0xa9b88aa9d9bb998aU, 0x8bca88b987a9a9a8U, 0x98a98999999ab88aU, 0x999998b988999988U,
  0xb99899a9b9abcaaaU, 0xcccc89b9979989b8U, 0xb988a88989acba9bU, 0xac999aa9978a7988U,
  0x7777886989776986U, 0x87778899986969c8U, 0x789b897999796976U, 0x68888789998989c8U,
  0x88989a79a9aa7987U, 0x8bab87a997a999c8U, 0x889a9a7999897977U, 0x7b8a87b9998979c8U,
  0x78aa8a79a9b97987U, 0x899a88a999a989d8U, 0x78ab8a89a9ac7987U, 0x8a9c88a99a9989d8U,
  0x9999999999999999U, 0x9999999999999999U, 0x9999999999999999U, 0x9999999999999999U,
  0x9999999999999999U, 0x9999999999999999U, 0x9999999999999999U, 0x9999999999999999U,
  0x9999999999999999U, 0x9999999999999999U, 0x9999999999999999U, 0x9999999999999999U,
  0x9999999999999999U, 0x9999999999999999U, 0x9999999999999999U, 0x9999999999999999U,
  0x9999999999999999U, 0x9999999999999999U, 0x9999999999999999U, 0x9999999999999999U,
  0x9999999999999999U, 0x9999999999999999U, 0x9999999999999999U, 0x9999999999999999U,
  0x9999999999999999U, 0x9999999999999999U, 0x9999999999999999U, 0x9999999999999999U,
  0x9999999999999999U, 0x9999999999999999U, 0x9999999999999999U, 0x9999999999999999U,
  0x9999999999999999U, 0x9999999999999999U, 0x9999999999999999U, 0x9999999999999999U,
  0x9999999999999999U, 0x9999999999999999U, 0x9999999999999999U, 0x9999999999999999U,
  0x9999999999999999U, 0x9999999999999999U, 0x9999999999999999U, 0x9999999999999999U,
  0x9999999999999999U, 0x9999999999999999U, 0x9999999999999999U, 0x9999999999999999U,
  0x9999999999999999U, 0x9999999999999999U, 0x9999999999999999U, 0x9999999999999999U,
  0x9999999999999999U, 0x9999999999999999U, 0x9999999999999999U, 0x9999999999999999U,
  0x9999999999999999U, 0x9999999999999999U, 0x9999999999999999U, 0x9999999999999999U,
  0x9999999999999999U, 0x9999999999999999U, 0x9999999999999999U, 0x9999999999999999U,
  0x9999999999999999U, 0x9999999999999999U, 0x9999999999999999U, 0x9999999999999999U,
  0x9999999999999999U, 0x9999999999999999U, 0x9999999999999999U, 0x9999999999999999U,
  0x9999999999999999U, 0x9999999999999999U, 0x9999999999999999U, 0x9999999999999999U,
  0x9999999999999999U, 0x9999999999999999U, 0x9999999999999999U, 0x9999999999999999U,
  0x9999999999999999U, 0x9999999999999999U, 0x9999999999999999U, 0x9999999999999999U,
  0x9999999999999999U, 0x9999999999999999U, 0x9999999999999999U, 0x9999999999999999U,
  0x9999999999999999U, 0x9999999999999999U, 0x9999999999999999U, 0x9999999999999999U,
  0x9999999999999999U, 0x9999999999999999U, 0x9999999999999999U, 0x9999999999999999U,
  0x9999999999999999U, 0x9999999999999999U, 0x9999999999999999U, 0x9999999999999999U,
  0x9999999999999999U, 0x9999999999999999U, 0x9999999999999999U, 0x9999999999999999U,
  0x9999999999999999U, 0x9999999999999999U, 0x9999999999999999U, 0x9999999999999999U,
  0x9999999999999999U, 0x9999999999999999U, 0x9999999999999999U, 0x9999999999999999U,
  0x9999999999999999U, 0x9999999999999999U, 0x9999999999999999U, 0x9999999999999999U,
  0x9999999999999999U, 0x9999999999999999U, 0x9999999999999999U, 0x9999999999999999U,
  0x9999999999999999U, 0x9999999999999999U, 0x9999999999999999U, 0x9999999999999999U,
  0x9999999999999999U, 0x9999999999999999U, 0x9999999999999999U, 0x9999999999999999U,
  0x9999999999999999U, 0x9999999999999999U, 0x9999999999999999U, 0x9999999999999999U,
  0x9999999999999999U, 0x9999999999999999U, 0x9999999999999999U, 0x9999999999999999U,
  0x9999999999999999U, 0x9999999999999999U, 0x9999999999999999U, 0x9999999999999999U,
  0x9999999999999999U, 0x9999999999999999U, 0x9999999999999999U, 0x9999999999999999U,
  0x9999999999999999U, 0x9999999999999999U, 0x9999999999999999U, 0x9999999999999999U,
  0x9999999999999999U, 0x9999999999999999U, 0x9999999999999999U, 0x9999999999999999U,
  0x9999999999999999U, 0x9999999999999999U, 0x9999999999999999U, 0x9999999999999999U,
  0x9999999999999999U, 0x9999999999999999U, 0x9999999999999999U, 0x9999999999999999U,
  0x9999999999999999U, 0x9999999999999999U, 0x9999999999999999U, 0x9999999999999999U,
  0x9999999999999999U, 0x9999999999999999U, 0x9999999999999999U, 0x9999999999999999U,
  0x9999999999999999U, 0x9999999999999999U, 0x9999999999999999U, 0x9999999999999999U,
  0x9999999999999999U, 0x9999999999999999U, 0x9999999999999999U, 0x9999999999999999U,
  0x9999999999999999U, 0x9999999999999999U, 0x9999999999999999U, 0x9999999999999999U,
  0x9999999999999999U, 0x9999999999999999U, 0x9999999999999999U, 0x9999999999999999U,
  0x9999999999999999U, 0x9999999999999999U, 0x9999999999999999U, 0x9999999999999999U,
  0x9999999999999999U, 0x9999999999999999U, 0x9999999999999999U, 0x9999999999999999U,
  0x9999999999999999U, 0x9999999999999999U, 0x9999999999999999U, 0x9999999999999999U,
  0x9999999999999999U, 0x9999999999999999U, 0x9999999999999999U, 0x9999999999999999U,
  0x9999999999999999U, 0x9999999999999999U, 0x9999999999999999U, 0x9999999999999999U,
  0x9999999999999999U, 0x9999999999999999U, 0x9999999999999999U, 0x9999999999999999U,
  0x9999999999999999U, 0x9999999999999999U, 0x9999999999999999U, 0x9999999999999999U,
  0x9999999999999999U, 0x9999999999999999U, 0x9999999999999999U, 0x9999999999999999U,
  0x9999999999999999U, 0x9999999999999999U, 0x9999999999999999U, 0x9999999999999999U,
  0x9999999999999999U, 0x9999999999999999U, 0x9999999999999999U, 0x9999999999999999U,
  0x9999999999999999U, 0x9999999999999999U, 0x9999999999999999U, 0x9999999999999999U,
  0x9999999999999999U, 0x9999999999999999U, 0x9999999999999999U, 0x9999999999999999U,
  0x9999999999999999U, 0x9999999999999999U, 0x9999999999999999U, 0x9999999999999999U,
  0x9999999999999999U, 0x9999999999999999U, 0x9999999999999999U, 0x9999999999999999U,
  0x9999999999999999U, 0x9999999999999999U, 0x9999999999999999U, 0x9999999999999999U,
  0x9999999999999999U, 0x9999999999999999U, 0x9999999999999999U, 0x9999999999999999U,
  0x9999999999999999U, 0x9999999999999999U, 0x9999999999999999U, 0x9999999999999999U,
  0x9999999999999999U, 0x9999999999999999U, 0x9999999999999999U, 0x9999999999999999U,
  0x9999999999999999U, 0x9999999999999999U, 0x9999999999999999U, 0x9999999999999999U,
  0x9999999999999999U, 0x9999999999999999U, 0x9999999999999999U, 0x9999999999999999U,
  0x9999999999999999U, 0x9999999999999999U, 0x9999999999999999U, 0x9999999999999999U,
  0x9999999999999999U, 0x9999999999999999U, 0x9999999999999999U, 0x9999999999999999U,
  0x9999999999999999U, 0x9999999999999999U, 0x9999999999999999U, 0x9999999999999999U,
  0x89a999b979b88799U, 0x888898899bb899a8U, 0xa9b8aab9a9abc97aU, 0x99aa68a9a8cab98bU,
  0x789ab9a999cacca9U, 0xa898dc99a9bda99aU, 0x77acb999a9a9bc99U, 0xd98aedb9ddbd99a9U,
  0x79ab9999d98b8a88U, 0x999bcba9cc9999a8U, 0x99ac7aa9a98c8aaaU, 0xa99bac99bca899c7U,
  0xc8ab69a9e9b886aaU, 0xbceb9ab9a7a899b6U, 0xeb97b9a999ac8b7aU, 0x98aa769966989999U,
  0xb897e9b9d98b9e6aU, 0x9ab98789a798a97dU, 0x6ca7eab9898baf8aU, 0x9868c899d79ea97eU,
  0x5aacdab9a999cd8bU, 0xb779eba9dbad998dU, 0x59ccbab9899b9c9bU, 0xb88bdcc9dbac999cU,
  0x98aaaab9b9c99a6bU, 0x9abbc9b9a8bca98aU, 0x98a8a999a9a99c89U, 0xcbaabab9a99b898aU,
  0x8aaa8a99b9979968U, 0x97b887998a9ab98aU, 0xb7a8b9a9c9baaa7bU, 0x8ba988a989b899abU,
  0xbb899899b98a6ca8U, 0xc9baac799a89899bU, 0x888a7999a98babd9U, 0xa8cadc999a9b89b8U,
  0xb99b9999898b78b8U, 0x8a889bb9ab9aa9c7U, 0x96b979b9c998a879U, 0xa9c988899a97b9b7U,
  0xaa9b99b9b9cabaccU, 0xa9cbab899baaa9b8U, 0xa99a9ac999b9bc9cU, 0xa999999989b99989U,
  0x989aaab999abc8abU, 0xa8a98bb9aabba9a8U, 0x9bbb9aa9a9baa99aU, 0xaab8bb89bbb9b989U,
  0x98aa9aa989aaa8cbU, 0xbaab9bb9cab9b9a8U, 0xc9a9aa99a9aa9aa9U, 0xaca9bbb9b9a9b9a9U,
  0xa99a89a9a99b99baU, 0xaaa9cc99cbbba9a9U, 0xba99aa9999a9c9bbU, 0x8babca79a89989b8U,
  0xaa98997989978ab8U, 0xaa89ac89998899b9U, 0xaa9a9aa9a999c8b9U, 0x889799998aa89989U,
  0x99899a999998a9aaU, 0x9988a9b98988a999U, 0xbb9ab9a99999a99aU, 0x9aa98a899ba9b999U,
  0xba9a99b98989baaaU, 0xa9bbaa998b9aa9b9U, 0x88bb9989898bb8b9U, 0x9889b9b98998b9b8U,
  0x99baa9a9999b9a8aU, 0x9aab9a999a9ab989U, 0x989a999999abbbb9U, 0xbaab9cc998888989U,
  0x9b9a8989a9888b98U, 0x89a8a9a998899989U, 0x89998989a9878998U, 0x77989799988889b9U,
  0xaa999989a9999ab8U, 0x99bb9999888899d9U, 0xb9898999999a9ba9U, 0x789999a9879889b9U,
  0x99988989b9898978U, 0x98ba8889889889a9U, 0xa9ab9989998a8a79U, 0xa9a9989999a9a989U,
  0x89aa99a9a988ba8bU, 0x98bb98a999b99999U, 0xa9999989a988ab89U, 0x9b9ba9a999998999U,
  0x99aa897999b77a87U, 0x898ba8a9999989a9U, 0x99a9897999a87a86U, 0x798aa899989879a9U,
  0x889989a9697967a8U, 0x687688898b9999bcU, 0xa9ba8989a9aa9a89U, 0xb99a99b9a89aa9a9U,
  0x7a9ba989b9bb7998U, 0x8bb998999cb899abU, 0xa89dc98999bc9c87U, 0xde8addb9dd8ca99aU,
  0x88aaca89d98a6b78U, 0x8aa9c899cc89a99aU, 0xb9aac9b999bc7c9aU, 0xcc8b9ba9bbabb98bU,
  0x97ac79b9d9c7b8abU, 0xcadaca99cabcb999U, 0xc887c999c9cbac8bU, 0xadb888999799898aU,
  0x6689b98969768898U, 0xb769ac89ab788998U, 0x77abca89798aaa88U, 0x878888a9ab88a9b7U,
  0x89b8ca99b9caad89U, 0x899978b9baab99aaU, 0x79bc7a9999aa878aU, 0x9babc9c99bab99a8U,
  0x89ca7aa989c7996aU, 0xaa9b79a99ab8c988U, 0xaaaad9a9b9999c8aU, 0xccaabba9baaa9998U,
  0xa898b989b9abac69U, 0xbbbaa7a9989ca98aU, 0x99acc9a9a99a9868U, 0x7a9ab899899aa99bU,
  0xab8ab989898c8cb8U, 0xc98bbbc9a87b898aU, 0x97a89989c9999979U, 0xa8ca9899b7a79a97U,
  0xba89a999a9aa99b8U, 0x9aa9aa99999a79b9U, 0xa798a999b9a88889U, 0xbab88b79799899a8U,
  0x788ba989a99cab98U, 0x88abcb89b98c8999U, 0x878a8989a9998b88U, 0xb88bbab9b98a89a9U,
  0x66aa7a99a978a779U, 0x85a89889baa9b998U, 0x9abcaa99a9abb979U, 0x99bbaa998aa9b989U,
  0x9baa9ab9999a88aaU, 0x989989a9a999b979U, 0xaaa9aaa9b9b99aabU, 0x8ab8a989a8b9b9aaU,
  0xa9998aa999aa89baU, 0xaa98baa9aaab99a9U, 0x98a99ab9d999a79cU, 0xa9cb8a79bbb8b9a8U,
  0xbabb99a989a99abaU, 0x9a89bb899cabb9b9U, 0x98aa89c979aab89aU, 0x998a989989b8a998U,
  0x97a99ab9b9c9987aU, 0x7a9887b979b7b9a9U, 0xc9a8a9c999cbaa8bU, 0xac9c89a988bb9989U,
  0xb9ab999999ba9a99U, 0xaa9b999989a99989U, 0xa8b99999b9b8b9baU, 0x8aa9a9c988a9a9b9U,
  0xbb99aa89a9aaaaa8U, 0x9cba9a89888b7999U, 0x79899a899998c8a8U, 0x79889889887a79a9U,
  0x98898a89b99a8a88U, 0x88a898c9888a8999U, 0x89789989a9899aa9U, 0x88a899b987997989U,
  0x99888999a9888aa8U, 0x88989979988a8999U, 0xa9899999a98b8aa8U, 0x8a87a999998989a9U,
  0x899c99a9a9888aa9U, 0x8899aaa9a98a99a9U, 0x98aa9ac9a998ba9cU, 0x898999a99999b999U,
  0x999b9999a9aabaa9U, 0xa9a999a98999a9a9U, 0x99aa99a9b9b9ba9aU, 0x889998a99aaaa999U,
  0x99ba9ab9b9c9caabU, 0xb9bb9ab99ab9a9b9U, 0x9a9a9999b9c9baa9U, 0x79aa988998ba9999U,
  0x9999999999999999U, 0x9999999999999999U, 0x9999999999999999U, 0x9999999999999999U,
  0x9999999999999999U, 0x9999999999999999U, 0x9999999999999999U, 0x9999999999999999U,
  0x9999999999999999U, 0x9999999999999999U, 0x9999999999999999U, 0x9999999999999999U,
  0x9999999999999999U, 0x9999999999999999U, 0x9999999999999999U, 0x9999999999999999U,
  0x9999999999999999U, 0x9999999999999999U, 0x9999999999999999U, 0x9999999999999999U,
  0x9999999999999999U, 0x9999999999999999U, 0x9999999999999999U, 0x9999999999999999U,
  0x9999999999999999U, 0x9999999999999999U, 0x9999999999999999U, 0x9999999999999999U,
  0x9999999999999999U, 0x9999999999999999U, 0x9999999999999999U, 0x9999999999999999U,
  0x9999999999999999U, 0x9999999999999999U, 0x9999999999999999U, 0x9999999999999999U,
  0x9999999999999999U, 0x9999999999999999U, 0x9999999999999999U, 0x9999999999999999U,
  0x9999999999999999U, 0x9999999999999999U, 0x9999999999999999U, 0x9999999999999999U,
  0x9999999999999999U, 0x9999999999999999U, 0x9999999999999999U, 0x9999999999999999U,
  0x9999999999999999U, 0x9999999999999999U, 0x9999999999999999U, 0x9999999999999999U,
  0x9999999999999999U, 0x9999999999999999U, 0x9999999999999999U, 0x9999999999999999U,
  0x9999999999999999U, 0x9999999999999999U, 0x9999999999999999U, 0x9999999999999999U,
  0x9999999999999999U, 0x9999999999999999U, 0x9999999999999999U, 0x9999999999999999U,
  0x9999999999999999U, 0x9999999999999999U, 0x9999999999999999U, 0x9999999999999999U,
  0x9999999999999999U, 0x9999999999999999U, 0x9999999999999999U, 0x9999999999999999U,
  0x9999999999999999U, 0x9999999999999999U, 0x9999999999999999U, 0x9999999999999999U,
  0x9999999999999999U, 0x9999999999999999U, 0x9999999999999999U, 0x9999999999999999U,
  0x9999999999999999U, 0x9999999999999999U, 0x9999999999999999U, 0x9999999999999999U,
  0x9999999999999999U, 0x9999999999999999U, 0x9999999999999999U, 0x9999999999999999U,
  0x9999999999999999U, 0x9999999999999999U, 0x9999999999999999U, 0x9999999999999999U,
  0xac88a889a96aaa78U, 0x9b95889998798989U, 0x89879899a9777a77U, 0x88b9da79e9ac798cU,
  0x8a88a99979c77d99U, 0xb778db89b69d998aU, 0x99aaa999b99c8a9aU, 0xa7898aa9c8ac999aU,
  0x898c9999c99bbdbaU, 0xd9a9cc99ca9b99a9U, 0xbcab9989c989aa99U, 0xcbb8cb99da9b89abU,
  0xbab8c9898998ad99U, 0x9ea9ca99c9cbc99aU, 0xab9b89a9b9aaabcaU, 0xadb9db89ba9a999aU,
  0xcb9c79a9b9a7a8caU, 0xb7caac89cda999b8U, 0xababaab9d9b898bbU, 0xaba89ac99ba9b9b8U,
  0xc6a9e99989969eaaU, 0x9caa988988bc99baU, 0xd798c999c98d8e99U, 0x8daa87b9a88da98dU,
  0x8b88c99999878c9bU, 0xa898b889d97ba99dU, 0x9cb9d9998999bac9U, 0x88a99b79b9bc999bU,
  0x9c98b99989c8bcbbU, 0xb9898ab9ac9899bbU, 0xc78a8999a98c99b9U, 0xa8b9aba9cb8aa99aU,
  0x97ba99a999c8978bU, 0xb9999b999abcb9aaU, 0x99bba9d9b9c9bb8bU, 0xb9ba89898bc89979U,
  0xabc8c9b9b9cbd99cU, 0x8ba9b9b987cbc98aU, 0xb78ba9998989cb8aU, 0x9a8869b98a9c997aU,
  0x769b8999a98797baU, 0x8799b899ab87b9c8U, 0xbcaab9a9a9acbbcaU, 0x8d98bc999a9ba9c9U,
  0xb98aa999b9a9ba9aU, 0xac999bb988888999U, 0xb779b88979799a89U, 0xaa788999798889a9U,
  0x68ab7999797a7888U, 0x867a88b98b8a99a9U, 0x78bb99a99988b87aU, 0x889998997ba9b9b8U,
  0xababbaa9a9bcca8bU, 0xacab98b98ba99998U, 0xaaac999999a8ba99U, 0x9b99a9a9899b99a9U,
  0xb898a98989bb8988U, 0x9b8b77d988889998U, 0x89ba898999987887U, 0x789999a98a8999b8U,
  0x899a8aa9898d9979U, 0x789b88a99a99a988U, 0x78ab89a98989988bU, 0x978888b989b8a9c8U,
  0xa9cb8ab9998a989aU, 0xaa9b8bb98b99d9c8U, 0x99bb9aa9b9aba88aU, 0x99ba999989b8b9b8U,
  0xb9a999a9b9bb897aU, 0x8abc87c98798a9a8U, 0xb9aa999999ab8a79U, 0xab9a89b9799899a8U,
  0x89b999997987898aU, 0x887a88998a98a9b8U, 0xa8cb9a999999a88aU, 0x899a88b98aa8b9c8U,
  0xc9baaa99a9aa9999U, 0xabac88b97999a9c8U, 0xca98998999bb8989U, 0x89ab88b977a899a8U,
  0xa998899999888988U, 0x88998889779889b8U, 0xa99989899989a988U, 0x88b9878978a899a8U,
  0xa997999989888989U, 0x788887a977898998U, 0xa998999989888988U, 0x888a879977889998U,
  0x9998899989888989U, 0x7788878977989998U, 0x99b98ab97988898bU, 0xc88988c988a9b9b8U,
  0x9999999999999999U, 0x9999999999999999U, 0x9999999999999999U, 0x9999999999999999U,
  0x9999999999999999U, 0x9999999999999999U, 0x9999999999999999U, 0x9999999999999999U,
  0x9999999999999999U, 0x9999999999999999U, 0x9999999999999999U, 0x9999999999999999U,
  0x9999999999999999U, 0x9999999999999999U, 0x9999999999999999U, 0x9999999999999999U,
  0x9999999999999999U, 0x9999999999999999U, 0x9999999999999999U, 0x9999999999999999U,
  0x9999999999999999U, 0x9999999999999999U, 0x9999999999999999U, 0x9999999999999999U,
  0x9999999999999999U, 0x9999999999999999U, 0x9999999999999999U, 0x9999999999999999U,
  0x9999999999999999U, 0x9999999999999999U, 0x9999999999999999U, 0x9999999999999999U,
  0x9999999999999999U, 0x9999999999999999U, 0x9999999999999999U, 0x9999999999999999U,
  0x9999999999999999U, 0x9999999999999999U, 0x9999999999999999U, 0x9999999999999999U,
  0x9999999999999999U, 0x9999999999999999U, 0x9999999999999999U, 0x9999999999999999U,
  0x9999999999999999U, 0x9999999999999999U, 0x9999999999999999U, 0x9999999999999999U,
  0x9999999999999999U, 0x9999999999999999U, 0x9999999999999999U, 0x9999999999999999U,
  0x9999999999999999U, 0x9999999999999999U, 0x9999999999999999U, 0x9999999999999999U,
  0x9999999999999999U, 0x9999999999999999U, 0x9999999999999999U, 0x9999999999999999U,
  0x9999999999999999U, 0x9999999999999999U, 0x9999999999999999U, 0x9999999999999999U,
  0x9999999999999999U, 0x9999999999999999U, 0x9999999999999999U, 0x9999999999999999U,
  0x9999999999999999U, 0x9999999999999999U, 0x9999999999999999U, 0x9999999999999999U,
  0x9999999999999999U, 0x9999999999999999U, 0x9999999999999999U, 0x9999999999999999U,
  0x9999999999999999U, 0x9999999999999999U, 0x9999999999999999U, 0x9999999999999999U,
  0x9999999999999999U, 0x9999999999999999U, 0x9999999999999999U, 0x9999999999999999U,
  0x9999999999999999U, 0x9999999999999999U, 0x9999999999999999U, 0x9999999999999999U,
  0x9999999999999999U, 0x9999999999999999U, 0x9999999999999999U, 0x9999999999999999U,
  0x9b99998999999989U, 0x999988998899899aU, 0x99a8899999998999U, 0x99998989a99899a8U,
  0xaa999999a99999a9U, 0xa9a99aa9999a8999U, 0xab9a8999999999b9U, 0xa999aa999a9a99a9U,
  0x8a999999899999a9U, 0x998aaa999a9a99b8U, 0x98998999899a99a9U, 0xa999999999a999a8U,
  0x999989899999a899U, 0xa9999899899999a8U, 0x99998999a99a9988U, 0x999988998999a9a8U,
  0x99a9a99999aa9a89U, 0x899988a978999989U, 0x9998899989989a99U, 0xa98989a999999999U,
  0x99a88999a999a899U, 0x8999999999989999U, 0xa99a9999899b9a99U, 0xb8899a999a9a89a9U,
  0x889a9999a9999899U, 0x99a999999a9999a9U, 0xa8999999a9a99989U, 0x9999989999999999U,
  0x98988999899998a8U, 0x9988998998889999U, 0xa99a9989999a8aa8U, 0xa9999aa9aa8999a9U,
  0x98aa9999a999a889U, 0xb9a9aa99aa998989U, 0x999a99a9999a99a9U, 0xa9999a999aa999a9U,
  0x99a9999999a9999aU, 0x999a99a999989999U, 0x98989999a9898988U, 0x9998889988989989U,
  0x9998999999a99999U, 0x9999999998989999U, 0x9999999989a99999U, 0x9aa99a99a89a9999U,
  0x99999999999a9a99U, 0x9998aa99a8999999U, 0x99b9999989988a99U, 0x999999a9a8999999U,
  0x99a9999999999999U, 0x9999999998989999U, 0x9999999999998998U, 0x98999a8999999999U,
  0x9899999989999999U, 0x9999999999999999U, 0x9999999999999999U, 0x999999a9a9989999U,
  0x99a9999999999999U, 0x9999a999a9999999U, 0x9999999999999999U, 0x9999999998999999U,
  0xa9a9999999a999a9U, 0x99a9a99999999999U, 0x99999999999999aaU, 0x8898998999999999U,
  0x99a999999999a9a9U, 0x999aa99999998999U, 0x99999999a9a99999U, 0x99a99999a9999999U,
  0x9999a99989999989U, 0x9999aa9999aa9999U, 0x98a9999999999999U, 0x9999a999a9989999U,
  0x9999999999999999U, 0x9999aa99a9999999U, 0x9999a99999999a99U, 0x99a9aa99a9999999U,
  0x99999999999999a9U, 0x9999a999a9999999U, 0x99999999999999a9U, 0x9999a999a9999999U,
  0x99999999999999a9U, 0x99a9a999a9999999U, 0x9a999999999999a9U, 0x9999aa99999999a9U,
  0x99999999999999a9U, 0x9999a99999999999U, 0x99999999999999a9U, 0x99a9a99999999999U,
  0x9999a999999999a9U, 0x99a9a999a9999999U, 0x9999a999999999a9U, 0x99a9a99999999999U,
  0x88bb99a9897b89baU, 0x9895bb99ab89b989U, 0x78999ac9a98aa999U, 0xbabb8b99b9bbb998U,
  0xb89ac9a989b88aaaU, 0x7d7999898ba899a8U, 0x8777b9a999aab79aU, 0xab9a7899888689a7U,
  0x888ba9a99998b77aU, 0x978a8889a88989a8U, 0x8c98b99999b9ca7aU, 0x99bba899b78b798bU,
  0x8da6c989a9c7cc88U, 0x7c99b6b99689898cU, 0x9d87b8798987bc87U, 0x87789799877b798cU,
  0xac88d879898d9bb8U, 0xabc7ab99b789898cU, 0x9b8a7879798a79c7U, 0x8a78bc99db8a799aU,
  0x7b8c4879798685b6U, 0x76788b99cd7799c9U, 0x9a9a687969769697U, 0x87888c89ac8699a7U,
  0x9a98498979989497U, 0x8798a9a9a986a997U, 0xca99599989b69598U, 0x87b987997b95b9a7U,
  0xa89859998997a698U, 0x9aba68a97995a996U, 0xc9975999999977a8U, 0x9ba969a976959997U,
  0xcb8759a9b9aa74b9U, 0x8bc878999794a987U, 0x989c5999897ca7aaU, 0xa78a6aa98b87a996U,
  0x88ab7aa99998889bU, 0x978a88a989a7a9a6U, 0x96a97a9979c88679U, 0xa88b68998aa8c995U,
  0x87baaab9c9c8b77bU, 0x8bbb97998ab8b996U, 0xd89bc9b9c99bbd9bU, 0xacccb9b98aba89a8U,
  0xb8a89ab9a988ca8cU, 0xc9cd79c99bb899a7U, 0x9bc99ab9a98a9abaU, 0xa9aa9a8989acc9a8U,
  0xa7a899b9b9a9c79aU, 0x88bb778998b89986U, 0xc9989aa999ba99cbU, 0x999c7989a9aba9b7U,
  0xb8aba999c9b9a999U, 0x9bcb9a897a9889c8U, 0x997ab999b99ba9abU, 0x9bca9a89aa9a89b8U,
  0xac8a9989a9889a98U, 0x7a97b979798a99baU, 0xbba8b9b9999a8ba9U, 0xca88b9b988a9998aU,
  0x9978b989b99bc998U, 0xa9a8b9b9a898b9a9U, 0xb8aa9a89a9b88989U, 0x9a8ca989aa999998U,
  0xca8ab98989c9ab79U, 0x9b9997999999997aU, 0xab97a8898997abcaU, 0xaa878aa988a9b9baU,
  0x9b897999c987c8d7U, 0xb8b8ac89ab7879c9U, 0xadba9999c9899ac8U, 0x7ab78999998899b9U,
  0xbc888989b9ac8ac8U, 0x9aa8aad998898999U, 0x8a8a9989b98b88b8U, 0x89a9a999a98989b9U,
  0xbb8ba98989abba99U, 0xbb9a8b89aa8989b9U, 0xa99aa989899b8a89U, 0x8b999a99a989a9c9U,
  0x899a999989ab9a99U, 0x89ab9bb9ab89a9d9U, 0xabca9ac999cb8a9bU, 0x999aa9c9a9b9c9c9U,
  0x9aaa9aa999adca9aU, 0xaabb89b9aaa9a9c9U, 0x9bcb9ab999ba9a9aU, 0x89aa99999bb9b9c9U,
  0x9b88aaa989bbcabbU, 0xca9d9bd99aa989c9U, 0x8b8a9a79998b8aa8U, 0x89ab9a999a8989d9U,
  0xad99aaa9a9aaba9aU, 0xabaaa8a9a8b9a96dU, 0x788879d9a976a87cU, 0x989b8889bbb889a8U,
  0xa886898979b779a7U, 0x66768779778889a7U, 0xa98869a9798a77c9U, 0x9689bc99c89789c7U,
  0xcaad7999b99b87baU, 0xbac98c798c8899b7U, 0xdcba7aa999a89a9aU, 0xabb9b9997ba9b9b8U,
  0xabcb8ab9a979aa8bU, 0x998b77b97bb7c9b8U, 0x78bcaac999b9bbcdU, 0xa7aaad999bcbc9a8U,
  0xb8b7cac9e9bdc99cU, 0x9ddc8ac989b8b987U, 0xbab6ba99c9c99d89U, 0x6dc877b975adb989U,
  0xaa96b999a9b87a98U, 0x7c8ab88986a8897cU, 0xbc8ab989998a7cb8U, 0x8c888b99b988898dU,
  0x9c7ad879998c7ba7U, 0x7998cb79a97d998dU, 0xbb7bc96979787ab7U, 0x9a78db79bb7a79abU,
  0x7ba99979898998c7U, 0x87889bb99b89c9b9U, 0xbb8cb979999c9cb8U, 0x8a89a9a9ab8a89bcU,
  0x98989979a98888b8U, 0x99888aa9989a8998U, 0x997a8979b98b8997U, 0xb8c99b89aa898999U,
  0x9b89b989998988a8U, 0x99a79a798a8aa999U, 0xb988b989a99a9a88U, 0x8ba978898889a99aU,
  0xb87a8979a9897a97U, 0xaaaa9aa9aa7a89aaU, 0x77ab898999977aa8U, 0x9788ba698a9b8999U,
  0xa8a9999999ba9a89U, 0xaaab899998bab989U, 0x79aa9a89a9a98878U, 0x9aa9a98998ab9998U,
  0xa8a9a999c9ba9988U, 0xabcb8899c99ac9a8U, 0xa7ab9aa999a8998aU, 0xa98ba899abacb988U,
  0x78a98ab9899ba88cU, 0xa99ab8c9b9b9b978U, 0x79ba9ac97999c88cU, 0xb78b99b9aaa9c988U,
  0xa999aab9b9bbbb9bU, 0xabaa89a998b9a989U, 0x8abc8aa98997a9b9U, 0xa88aaa999babb9c9U,
  0xaa98aa9999c89a9bU, 0x99a8a97988999989U, 0xb898a999a98acabaU, 0x99a988a98b9989b9U,
  0xa8ba8989a9a88788U, 0x789797999aa8b9a9U, 0x889ba9b99989c899U, 0x989899a9799a9998U,
  0x97a99ab9a9889a8bU, 0xa99ba8a99a9ab989U, 0x6999a9a9898ab89bU, 0x9999aa999999a989U,
  0x99bab999a99c9b7aU, 0xa9a9b99998abb979U, 0x78aa99b98988c9abU, 0xa789a999a9999989U,
  0x89aa99a9998899c9U, 0xa89bba999899b9a8U, 0x9baa99a999aabacaU, 0xa99999a99999b998U,
  0x989a89a9b99a9899U, 0xa8b999a99999a9a8U, 0xa9ab9ac9b99baa8cU, 0xb9bb99a999b9b989U,
  0x799999c979a8a99cU, 0xa88b989988aab988U, 0x989999a9899ab99aU, 0x9989999999999999U,
  0x8989999989a9da9bU, 0xba98a99998999999U, 0x887b9879798ba997U, 0x89799889997889a9U,
  0x9999999999999999U, 0x9999999999999999U, 0x9999999999999999U, 0x9999999999999999U,
  0x9999999999999999U, 0x9999999999999999U, 0x9999999999999999U, 0x9999999999999999U,
  0x9999999999999999U, 0x9999999999999999U, 0x9999999999999999U, 0x9999999999999999U,
  0x9999999999999999U, 0x9999999999999999U, 0x9999999999999999U, 0x9999999999999999U,
  0x9999999999999999U, 0x9999999999999999U, 0x9999999999999999U, 0x9999999999999999U,
  0x9999999999999999U, 0x9999999999999999U, 0x9999999999999999U, 0x9999999999999999U,
  0x9999999999999999U, 0x9999999999999999U, 0x9999999999999999U, 0x9999999999999999U,
  0x9999999999999999U, 0x9999999999999999U, 0x9999999999999999U, 0x9999999999999999U,
  0x9999999999999999U, 0x9999999999999999U, 0x9999999999999999U, 0x9999999999999999U,
  0x9999999999999999U, 0x9999999999999999U, 0x9999999999999999U, 0x9999999999999999U,
  0x9999999999999999U, 0x9999999999999999U, 0x9999999999999999U, 0x9999999999999999U,
  0x9999999999999999U, 0x9999999999999999U, 0x9999999999999999U, 0x9999999999999999U,
  0x9999999999999999U, 0x9999999999999999U, 0x9999999999999999U, 0x9999999999999999U,
  0x9999999999999999U, 0x9999999999999999U, 0x9999999999999999U, 0x9999999999999999U,
  0x9999999999999999U, 0x9999999999999999U, 0x9999999999999999U, 0x9999999999999999U,
  0x9999999999999999U, 0x9999999999999999U, 0x9999999999999999U, 0x9999999999999999U,
  0x9999999999999999U, 0x9999999999999999U, 0x9999999999999999U, 0x9999999999999999U,
  0x9999999999999999U, 0x9999999999999999U, 0x9999999999999999U, 0x9999999999999999U,
  0x9999999999999999U, 0x9999999999999999U, 0x9999999999999999U, 0x9999999999999999U,
  0x9999999999999999U, 0x9999999999999999U, 0x9999999999999999U, 0x9999999999999999U,
  0x9999999999999999U, 0x9999999999999999U, 0x9999999999999999U, 0x9999999999999999U,
  0x9999999999999999U, 0x9999999999999999U, 0x9999999999999999U, 0x9999999999999999U,
  0x9999999999999999U, 0x9999999999999999U, 0x9999999999999999U, 0x9999999999999999U,
  0x9999999999999999U, 0x9999999999999999U, 0x9999999999999999U, 0x9999999999999999U,
  0x9999999999999999U, 0x9999999999999999U, 0x9999999999999999U, 0x9999999999999999U,
  0x9999999999999999U, 0x9999999999999999U, 0x9999999999999999U, 0x9999999999999999U,
  0x9999999999999999U, 0x9999999999999999U, 0x9999999999999999U, 0x9999999999999999U,
  0x9999999999999999U, 0x9999999999999999U, 0x9999999999999999U, 0x9999999999999999U,
  0x9999999999999999U, 0x9999999999999999U, 0x9999999999999999U, 0x9999999999999999U,
  0x9999999999999999U, 0x9999999999999999U, 0x9999999999999999U, 0x9999999999999999U,
  0x9999999999999999U, 0x9999999999999999U, 0x9999999999999999U, 0x9999999999999999U,
  0x9999999999999999U, 0x9999999999999999U, 0x9999999999999999U, 0x9999999999999999U,
  0x9999999999999999U, 0x9999999999999999U, 0x9999999999999999U, 0x9999999999999999U,
  0x9999999999999999U, 0x9999999999999999U, 0x9999999999999999U, 0x9999999999999999U,
  0x9999999999999999U, 0x9999999999999999U, 0x9999999999999999U, 0x9999999999999999U,
  0x9999999999999999U, 0x9999999999999999U, 0x9999999999999999U, 0x9999999999999999U,
  0x9999999999999999U, 0x9999999999999999U, 0x9999999999999999U, 0x9999999999999999U,
  0x9999999999999999U, 0x9999999999999999U, 0x9999999999999999U, 0x9999999999999999U,
  0x9999999999999999U, 0x9999999999999999U, 0x9999999999999999U, 0x9999999999999999U,
  0x9999999999999999U, 0x9999999999999999U, 0x9999999999999999U, 0x9999999999999999U,
  0x9999999999999999U, 0x9999999999999999U, 0x9999999999999999U, 0x9999999999999999U,
  0x9999999999999999U, 0x9999999999999999U, 0x9999999999999999U, 0x9999999999999999U,
  0x9999999999999999U, 0x9999999999999999U, 0x9999999999999999U, 0x9999999999999999U,
  0x9999999999999999U, 0x9999999999999999U, 0x9999999999999999U, 0x9999999999999999U,
  0x9999999999999999U, 0x9999999999999999U, 0x9999999999999999U, 0x9999999999999999U,
  0x9999999999999999U, 0x9999999999999999U, 0x9999999999999999U, 0x9999999999999999U,
  0x9999999999999999U, 0x9999999999999999U, 0x9999999999999999U, 0x9999999999999999U,
  0x9999999999999999U, 0x9999999999999999U, 0x9999999999999999U, 0x9999999999999999U,
  0x9999999999999999U, 0x9999999999999999U, 0x9999999999999999U, 0x9999999999999999U,
  0x9999999999999999U, 0x9999999999999999U, 0x9999999999999999U, 0x9999999999999999U,
  0x9999999999999999U, 0x9999999999999999U, 0x9999999999999999U, 0x9999999999999999U,
  0x9999999999999999U, 0x9999999999999999U, 0x9999999999999999U, 0x9999999999999999U,
  0x9999999999999999U, 0x9999999999999999U, 0x9999999999999999U, 0x9999999999999999U,
  0x9999999999999999U, 0x9999999999999999U, 0x9999999999999999U, 0x9999999999999999U,
  0x9999999999999999U, 0x9999999999999999U, 0x9999999999999999U, 0x9999999999999999U,
  0x9999999999999999U, 0x9999999999999999U, 0x9999999999999999U, 0x9999999999999999U,
  0x9999999999999999U, 0x9999999999999999U, 0x9999999999999999U, 0x9999999999999999U,
  0x9999999999999999U, 0x9999999999999999U, 0x9999999999999999U, 0x9999999999999999U,
  0x9999999999999999U, 0x9999999999999999U, 0x9999999999999999U, 0x9999999999999999U,
  0x9999999999999999U, 0x9999999999999999U, 0x9999999999999999U, 0x9999999999999999U,
  0x9999999999999999U, 0x9999999999999999U, 0x9999999999999999U, 0x9999999999999999U,
  0x9999999999999999U, 0x9999999999999999U, 0x9999999999999999U, 0x9999999999999999U,
  0x9999999999999999U, 0x9999999999999999U, 0x9999999999999999U, 0x9999999999999999U,
  0x9999999999999999U, 0x9999999999999999U, 0x9999999999999999U, 0x9999999999999999U,
  0x9999999999999999U, 0x9999999999999999U, 0x9999999999999999U, 0x9999999999999999U,
  0x9999999999999999U, 0x9999999999999999U, 0x9999999999999999U, 0x9999999999999999U,
  0x9999999999999999U, 0x9999999999999999U, 0x9999999999999999U, 0x9999999999999999U,
  0x9999999999999999U, 0x9999999999999999U, 0x9999999999999999U, 0x9999999999999999U,
  0x9999999999999999U, 0x9999999999999999U, 0x9999999999999999U, 0x9999999999999999U,
  0x9999999999999999U, 0x9999999999999999U, 0x9999999999999999U, 0x9999999999999999U,
  0x9999999999999999U, 0x9999999999999999U, 0x9999999999999999U, 0x9999999999999999U,
  0x9999999999999999U, 0x9999999999999999U, 0x9999999999999999U, 0x9999999999999999U,
  0x9999999999999999U, 0x9999999999999999U, 0x9999999999999999U, 0x9999999999999999U,
  0x9999999999999999U, 0x9999999999999999U, 0x9999999999999999U, 0x9999999999999999U,
  0x9999999999999999U, 0x9999999999999999U, 0x9999999999999999U, 0x9999999999999999U,
  0x9999999999999999U, 0x9999999999999999U, 0x9999999999999999U, 0x9999999999999999U,
  0x9999999999999999U, 0x9999999999999999U, 0x9999999999999999U, 0x9999999999999999U,
  0x9999999999999999U, 0x9999999999999999U, 0x9999999999999999U, 0x9999999999999999U,
  0x9999999999999999U, 0x9999999999999999U, 0x9999999999999999U, 0x9999999999999999U,
  0x9999999999999999U, 0x9999999999999999U, 0x9999999999999999U, 0x9999999999999999U,
  0x9999999999999999U, 0x9999999999999999U, 0x9999999999999999U, 0x9999999999999999U,
  0x9999999999999999U, 0x9999999999999999U, 0x9999999999999999U, 0x9999999999999999U,
  0x9999999999999999U, 0x9999999999999999U, 0x9999999999999999U, 0x9999999999999999U,
  0x9999999999999999U, 0x9999999999999999U, 0x9999999999999999U, 0x9999999999999999U,
  0x9999999999999999U, 0x9999999999999999U, 0x9999999999999999U, 0x9999999999999999U,
  0x9999999999999999U, 0x9999999999999999U, 0x9999999999999999U, 0x9999999999999999U,
  0x9999999999999999U, 0x9999999999999999U, 0x9999999999999999U, 0x9999999999999999U,
  0x9999999999999999U, 0x9999999999999999U, 0x9999999999999999U, 0x9999999999999999U,
  0x9999999999999999U, 0x9999999999999999U, 0x9999999999999999U, 0x9999999999999999U,
  0x9999999999999999U, 0x9999999999999999U, 0x9999999999999999U, 0x9999999999999999U,
  0x9999999999999999U, 0x9999999999999999U, 0x9999999999999999U, 0x9999999999999999U,
  0x9999999999999999U, 0x9999999999999999U, 0x9999999999999999U, 0x9999999999999999U,
  0x9999999999999999U, 0x9999999999999999U, 0x9999999999999999U, 0x9999999999999999U,
  0x9999999999999999U, 0x9999999999999999U, 0x9999999999999999U, 0x9999999999999999U,
  0x9999999999999999U, 0x9999999999999999U, 0x9999999999999999U, 0x9999999999999999U,
  0x9999999999999999U, 0x9999999999999999U, 0x9999999999999999U, 0x9999999999999999U,
  0x9999999999999999U, 0x9999999999999999U, 0x9999999999999999U, 0x9999999999999999U,
  0x9999999999999999U, 0x9999999999999999U, 0x9999999999999999U, 0x9999999999999999U,
  0x9999999999999999U, 0x9999999999999999U, 0x9999999999999999U, 0x9999999999999999U,
  0x9999999999999999U, 0x9999999999999999U, 0x9999999999999999U, 0x9999999999999999U,
  0x9999999999999999U, 0x9999999999999999U, 0x9999999999999999U, 0x9999999999999999U,
  0x9999999999999999U, 0x9999999999999999U, 0x9999999999999999U, 0x9999999999999999U,
  0x9999999999999999U, 0x9999999999999999U, 0x9999999999999999U, 0x9999999999999999U,
  0x9999999999999999U, 0x9999999999999999U, 0x9999999999999999U, 0x9999999999999999U,
  0x9999999999999999U, 0x9999999999999999U, 0x9999999999999999U, 0x9999999999999999U,
  0x9999999999999999U, 0x9999999999999999U, 0x9999999999999999U, 0x9999999999999999U,
  0x9999999999999999U, 0x9999999999999999U, 0x9999999999999999U, 0x9999999999999999U,
  0x9999999999999999U, 0x9999999999999999U, 0x9999999999999999U, 0x9999999999999999U,
  0x9999999999999999U, 0x9999999999999999U, 0x9999999999999999U, 0x9999999999999999U,
  0x9999999999999999U, 0x9999999999999999U, 0x9999999999999999U, 0x9999999999999999U,
  0x9999999999999999U, 0x9999999999999999U, 0x9999999999999999U, 0x9999999999999999U,
  0x9999999999999999U, 0x9999999999999999U, 0x9999999999999999U, 0x9999999999999999U,
  0x9999999999999999U, 0x9999999999999999U, 0x9999999999999999U, 0x9999999999999999U,
  0x9999999999999999U, 0x9999999999999999U, 0x9999999999999999U, 0x9999999999999999U,
  0x9999999999999999U, 0x9999999999999999U, 0x9999999999999999U, 0x9999999999999999U,
  0x9999999999999999U, 0x9999999999999999U, 0x9999999999999999U, 0x9999999999999999U,
  0x9999999999999999U, 0x9999999999999999U, 0x9999999999999999U, 0x9999999999999999U,
  0x9999999999999999U, 0x9999999999999999U, 0x9999999999999999U, 0x9999999999999999U,
  0x9999999999999999U, 0x9999999999999999U, 0x9999999999999999U, 0x9999999999999999U,
  0x9999999999999999U, 0x9999999999999999U, 0x9999999999999999U, 0x9999999999999999U,
  0x9999999999999999U, 0x9999999999999999U, 0x9999999999999999U, 0x9999999999999999U,
  0x9999999999999999U, 0x9999999999999999U, 0x9999999999999999U, 0x9999999999999999U,
  0x9999999999999999U, 0x9999999999999999U, 0x9999999999999999U, 0x9999999999999999U,
  0x9999999999999999U, 0x9999999999999999U, 0x9999999999999999U, 0x9999999999999999U,
  0x9999999999999999U, 0x9999999999999999U, 0x9999999999999999U, 0x9999999999999999U,
  0x9999999999999999U, 0x9999999999999999U, 0x9999999999999999U, 0x9999999999999999U,
  0x9999999999999999U, 0x9999999999999999U, 0x9999999999999999U, 0x9999999999999999U,
  0x9999999999999999U, 0x9999999999999999U, 0x9999999999999999U, 0x9999999999999999U,
  0x9999999999999999U, 0x9999999999999999U, 0x9999999999999999U, 0x9999999999999999U,
  0x9999999999999999U, 0x9999999999999999U, 0x9999999999999999U, 0x9999999999999999U,
  0x9999999999999999U, 0x9999999999999999U, 0x9999999999999999U, 0x9999999999999999U,
  0x9999999999999999U, 0x9999999999999999U, 0x9999999999999999U, 0x9999999999999999U,
  0x9999999999999999U, 0x9999999999999999U, 0x9999999999999999U, 0x9999999999999999U,
  0x9999999999999999U, 0x9999999999999999U, 0x9999999999999999U, 0x9999999999999999U,
  0x9999999999999999U, 0x9999999999999999U, 0x9999999999999999U, 0x9999999999999999U,
  0x9999999999999999U, 0x9999999999999999U, 0x9999999999999999U, 0x9999999999999999U,
  0x9999999999999999U, 0x9999999999999999U, 0x9999999999999999U, 0x9999999999999999U,
  0x9999999999999999U, 0x9999999999999999U, 0x9999999999999999U, 0x9999999999999999U,
  0x88a999a9a9b8887aU, 0x999c9989aab9a9b9U, 0xaa97b9a9899aaabbU, 0x9aa86aa977979989U,
  0xaa9bb999a98b9ba9U, 0xab99aba9bc9999aaU, 0x9aaca9a9c98a8a99U, 0xa999cba9bc9ab9a9U,
  0xaaab99b9b99a8baaU, 0xa989bb99baaaa999U, 0x999a99b9899989abU, 0x99899a999aa999a9U,
  0x998989b9899999abU, 0xa8899b89a9aa9998U, 0x89a989a98998a89aU, 0x8799888989a89998U,
  0xb8a989b9b99b9a9aU, 0x99a9989988aab998U, 0xa89989a9a999988aU, 0xb9ba88898aa9b988U,
  0xba9899b9b9b9a9abU, 0xaa99899999a9b989U, 0xa999a9b979b8a7abU, 0xbb8a8b899aa99988U,
  0x899a89a999a8a8abU, 0x99999a898ba98998U, 0xa99999a98998978aU, 0x9a8a89998a9899a7U,
  0xa89989a99988989aU, 0x999878897997a998U, 0x899889a9a999a89bU, 0xa99989a999a99998U,
  0x99aa89a9a9b8a88aU, 0x99aaa9898aa79998U, 0xb988a99999aaa999U, 0xab9989b989899989U,
  0x8a99a999b989b9aaU, 0xa9a99a79bb9b9999U, 0xac989989b9999ab9U, 0x9ba8ab89899999a9U,
  0xaa979999a9988999U, 0x8a88a87988999989U, 0x9a97a99999989989U, 0x8888988988999989U,
  0x9a98999989989889U, 0x9898b88999999989U, 0x9a8a99a999888989U, 0x879aa9898a9ab989U,
  0x9888999989aaaa9aU, 0xa9999aa9b99a9988U, 0x789999a9a99b888aU, 0xa99aaaa9baaaa979U,
  0x978999a9a999aa7aU, 0xaa9a9899a9a99989U, 0x88a899a99997997aU, 0x99aa988998a8a989U,
  0x989899a999999a8aU, 0x9a9b999998a99989U, 0xa8aaa999b9a99899U, 0x9aa9a97999a88998U,
  0x9999a999a9a79999U, 0x9a9aaa8989999999U, 0xb998a999a9999978U, 0xabb89b8998898979U,
  0x898999898987aa79U, 0x8988a97999998979U, 0x8989998989788998U, 0x9989aa89aa898999U,
  0x8989998999789898U, 0x9998aa89aa8999a9U, 0x8999999999889989U, 0x8989a9899a999999U,
  0x99989999a9989889U, 0x8a99a99999989999U, 0x99999999a9a9a999U, 0xa99aaa9999a99999U,
  0x899a9999a99aa99aU, 0xb9a9aa99aaa999a9U, 0x99aa99a9b9a9b99aU, 0xbaaaaaa9aaa899b9U,
  0xaaaaa999a9bbb9aaU, 0xaa9aabb9a99a99b9U, 0xaa999999b9aa9999U, 0x9a99ba99aa9999a9U,
  0xaa9aa999b99a9a99U, 0x9aa9aaa9a99999a9U, 0xaa9999a9a9a99999U, 0x9a99aa99a99999a9U,
  0xaa8999a9a9aa999aU, 0x9aabaaa9a9a999a9U, 0xaa9a9999a9999999U, 0x9a9baa99a99999a9U,
  0x9999999999999999U, 0x9999999999999999U, 0x9999999999999999U, 0x9999999999999999U,
  0x9999999999999999U, 0x9999999999999999U, 0x9999999999999999U, 0x9999999999999999U,
  0x9999999999999999U, 0x9999999999999999U, 0x9999999999999999U, 0x9999999999999999U,
  0x9999999999999999U, 0x9999999999999999U, 0x9999999999999999U, 0x9999999999999999U,
  0x9999999999999999U, 0x9999999999999999U, 0x9999999999999999U, 0x9999999999999999U,
  0x9999999999999999U, 0x9999999999999999U, 0x9999999999999999U, 0x9999999999999999U,
  0x9999999999999999U, 0x9999999999999999U, 0x9999999999999999U, 0x9999999999999999U,
  0x9999999999999999U, 0x9999999999999999U, 0x9999999999999999U, 0x9999999999999999U,
  0x9999999999999999U, 0x9999999999999999U, 0x9999999999999999U, 0x9999999999999999U,
  0x9999999999999999U, 0x9999999999999999U, 0x9999999999999999U, 0x9999999999999999U,
  0x9999999999999999U, 0x9999999999999999U, 0x9999999999999999U, 0x9999999999999999U,
  0x9999999999999999U, 0x9999999999999999U, 0x9999999999999999U, 0x9999999999999999U,
  0x9999999999999999U, 0x9999999999999999U, 0x9999999999999999U, 0x9999999999999999U,
  0x9999999999999999U, 0x9999999999999999U, 0x9999999999999999U, 0x9999999999999999U,
  0x9999999999999999U, 0x9999999999999999U, 0x9999999999999999U, 0x9999999999999999U,
  0x9999999999999999U, 0x9999999999999999U, 0x9999999999999999U, 0x9999999999999999U,
  0x9999999999999999U, 0x9999999999999999U, 0x9999999999999999U, 0x9999999999999999U,
  0x9999999999999999U, 0x9999999999999999U, 0x9999999999999999U, 0x9999999999999999U,
  0x9999999999999999U, 0x9999999999999999U, 0x9999999999999999U, 0x9999999999999999U,
  0x9999999999999999U, 0x9999999999999999U, 0x9999999999999999U, 0x9999999999999999U,
  0x9999999999999999U, 0x9999999999999999U, 0x9999999999999999U, 0x9999999999999999U,
  0x9999999999999999U, 0x9999999999999999U, 0x9999999999999999U, 0x9999999999999999U,
  0x9999999999999999U, 0x9999999999999999U, 0x9999999999999999U, 0x9999999999999999U,
  0x9999999999999999U, 0x9999999999999999U, 0x9999999999999999U, 0x9999999999999999U,
  0x9999999999999999U, 0x9999999999999999U, 0x9999999999999999U, 0x9999999999999999U,
  0x9999999999999999U, 0x9999999999999999U, 0x9999999999999999U, 0x9999999999999999U,
  0x9999999999999999U, 0x9999999999999999U, 0x9999999999999999U, 0x9999999999999999U,
  0x9999999999999999U, 0x9999999999999999U, 0x9999999999999999U, 0x9999999999999999U,
  0x9999999999999999U, 0x9999999999999999U, 0x9999999999999999U, 0x9999999999999999U,
  0x9999999999999999U, 0x9999999999999999U, 0x9999999999999999U, 0x9999999999999999U,
  0x9999999999999999U, 0x9999999999999999U, 0x9999999999999999U, 0x9999999999999999U,
  0x9999999999999999U, 0x9999999999999999U, 0x9999999999999999U, 0x9999999999999999U,
  0x9999999999999999U, 0x9999999999999999U, 0x9999999999999999U, 0x9999999999999999U,
  0x9999999999999999U, 0x9999999999999999U, 0x9999999999999999U, 0x9999999999999999U,
  0x9999999999999999U, 0x9999999999999999U, 0x9999999999999999U, 0x9999999999999999U,
  0x9999999999999999U, 0x9999999999999999U, 0x9999999999999999U, 0x9999999999999999U,
  0x9999999999999999U, 0x9999999999999999U, 0x9999999999999999U, 0x9999999999999999U,
  0x9999999999999999U, 0x9999999999999999U, 0x9999999999999999U, 0x9999999999999999U,
  0x9999999999999999U, 0x9999999999999999U, 0x9999999999999999U, 0x9999999999999999U,
  0x9999999999999999U, 0x9999999999999999U, 0x9999999999999999U, 0x9999999999999999U,
  0x9999999999999999U, 0x9999999999999999U, 0x9999999999999999U, 0x9999999999999999U,
  0x9999999999999999U, 0x9999999999999999U, 0x9999999999999999U, 0x9999999999999999U,
  0x9999999999999999U, 0x9999999999999999U, 0x9999999999999999U, 0x9999999999999999U,
  0x9999999999999999U, 0x9999999999999999U, 0x9999999999999999U, 0x9999999999999999U,
  0x9999999999999999U, 0x9999999999999999U, 0x9999999999999999U, 0x9999999999999999U,
  0x9999999999999999U, 0x9999999999999999U, 0x9999999999999999U, 0x9999999999999999U,
  0x9999999999999999U, 0x9999999999999989U, 0x9999999999989999U, 0x9999999999999999U,
  0x9999999999999999U, 0x9999999999999989U, 0x999899999999a99aU, 0x9999999999999989U,
  0x8999999999999a99U, 0x99899999999a9999U, 0x8999999999899a99U, 0x9989a999a99a9999U,
  0x9999999999999999U, 0x9999999999999999U, 0xa9898999a9999999U, 0x99999999999a9998U,
  0x9989899999999999U, 0x9999999988989999U, 0x99899999a999aa99U, 0x9898899989999999U,
  0x99999999a989a999U, 0x99999989999a9999U, 0x9999a99999999a99U, 0x9899999999999999U,
  0x998999999999a999U, 0x9999a99999999999U, 0x99899999a9999999U, 0x9999a9a9999a8999U,
  0x9999999999999a99U, 0x9998999999998999U, 0x9999899999899999U, 0x98999a999a9a9999U,
  0x999999999999a999U, 0x9999999999999999U, 0x999999a999999999U, 0x9999998999a99999U,
  0x999999a99999a99aU, 0x999a899999999989U, 0x999999999999a999U, 0x999999a999999999U,
  0x9999999999999999U, 0x9999998999999999U, 0x999899999999a999U, 0x9999999999999999U,
  0x9999899999899999U, 0x9999999999999989U, 0x999999a999889989U, 0x9999999999999989U,
  0x999999a99999a99aU, 0x9999999998a99989U, 0x9999899999899999U, 0x9999999999999999U,
  0x99999999a9999999U, 0x9999989999999999U, 0x9999899999989999U, 0x9999999999999999U,
  0x9999899999999999U, 0x9999999999998999U, 0x9999999999999899U, 0x8999998999998999U,
  0x999999999999a999U, 0x9999999999999999U, 0x9999999999889999U, 0x9989999999999999U,
  0x9999999999999989U, 0x9999989999999999U, 0x9999999999999999U, 0x9989999989999999U,
  0x9999899999989999U, 0x9999999999999999U, 0x9999899999989999U, 0x9999899999999999U,
  0x9999899999999999U, 0x9999999989999999U, 0x99999999a9999899U, 0x9999999989999999U,
  0x9998899999999899U, 0x9999899989999999U, 0x99899999a9a99999U, 0x9999898989999999U,
  0x9a999999999a9999U, 0x9a9a999989999999U, 0x99998989a9989998U, 0x9999899989999999U,
  0x99998999a99989a8U, 0x9999899989999999U, 0x99998999a99999a9U, 0x9999899989999999U,
  0x9a998999999998a9U, 0x9999899989999999U, 0xa9998999a99999a9U, 0x9a99899989999999U,
  0x9999999999999999U, 0x9999999999999999U, 0x9999999999999999U, 0x9999999999999999U,
  0x9999999999999999U, 0x9999999999999999U, 0x9999999999999999U, 0x9999999999999999U,
  0x9999999999999999U, 0x9999999999999999U, 0x9999999999999999U, 0x9999999999999999U,
  0x9999999999999999U, 0x9999999999999999U, 0x9999999999999999U, 0x9999999999999999U,
  0x9999999999999999U, 0x9999999999999999U, 0x9999999999999999U, 0x9999999999999999U,
  0x9999999999999999U, 0x9999999999999999U, 0x9999999999999999U, 0x9999999999999999U,
  0x9999999999999999U, 0x9999999999999999U, 0x9999999999999999U, 0x9999999999999999U,
  0x9999999999999999U, 0x9999999999999999U, 0x9999999999999999U, 0x9999999999999999U,
  0x9999999999999999U, 0x9999999999999999U, 0x9999999999999999U, 0x9999999999999999U,
  0x9999999999999999U, 0x9999999999999999U, 0x9999999999999999U, 0x9999999999999999U,
  0x9999999999999999U, 0x9999999999999999U, 0x9999999999999999U, 0x9999999999999999U,
  0x9999999999999999U, 0x9999999999999999U, 0x9999999999999999U, 0x9999999999999999U,
  0x9999999999999999U, 0x9999999999999999U, 0x9999999999999999U, 0x9999999999999999U,
  0x9999999999999999U, 0x9999999999999999U, 0x9999999999999999U, 0x9999999999999999U,
  0x9999999999999999U, 0x9999999999999999U, 0x9999999999999999U, 0x9999999999999999U,
  0x9999999999999999U, 0x9999999999999999U, 0x9999999999999999U, 0x9999999999999999U,
  0x9999999999999999U, 0x9999999999999999U, 0x9999999999999999U, 0x9999999999999999U,
  0x9999999999999999U, 0x9999999999999999U, 0x9999999999999999U, 0x9999999999999999U,
  0x9999999999999999U, 0x9999999999999999U, 0x9999999999999999U, 0x9999999999999999U,
  0x9999999999999999U, 0x9999999999999999U, 0x9999999999999999U, 0x9999999999999999U,
  0x9999999999999999U, 0x9999999999999999U, 0x9999999999999999U, 0x9999999999999999U,
  0x9999999999999999U, 0x9999999999999999U, 0x9999999999999999U, 0x9999999999999999U,
  0x9999999999999999U, 0x9999999999999999U, 0x9999999999999999U, 0x9999999999999999U,
  0xad9889c999a8aa89U, 0x9aac979987a8995eU, 0x8a6798b9898ad87bU, 0x887a7879c7ca897cU,
  0x787bb8697977aac7U, 0x9567dc79bb7e89aaU, 0x888aa999b98c8ab8U, 0x8597ba89eb8a89b8U,
  0x889dc999c98c9a88U, 0xb7a99a899c8a89a9U, 0x79a9d9a9b9bcbd8bU, 0xcacacb99caacb99bU,
  0x7b9c59a969ab98baU, 0xcc6cecc9daabb9aaU, 0x689a3999799884caU, 0xa67a9b999c98a9d6U,
  0xa7ab8a99b9bdc6baU, 0x8dcb6cb96c95b9b5U, 0xb8a85a79999767a7U, 0x6bb856c9688999d6U,
  0xb9998a89d9a85687U, 0x78b85699688699a7U, 0xdbbaa9c9d9897c9bU, 0xbccb8b99aaaaa9aaU,
  0x8d9a99c979888b9aU, 0x898b9889a999a99cU, 0x9caac9a99988b9a9U, 0x9897a979aa9799a9U,
  0x9bcaca9999888a88U, 0xab9789b99b9aaab9U, 0xbaba89b9b9ca99aaU, 0x8ba99a999abaa9baU,
  0x9caa8aa999999a9aU, 0xa99b98998999999aU, 0x9aa89ac999b8a96bU, 0x8a98978978b6996aU,
  0x8a9ac9a979c8bc7cU, 0x8b99888989a9b97bU, 0x8989999999b9bb7aU, 0x8b99b989988a897bU,
  0xa98a9999a9aa9acaU, 0xbaaabca9aa8a899bU, 0x899a9999b9b99caaU, 0x99a89a99aa9b999aU,
  0x98ba9a8989b98878U, 0x8888b799899ab9aaU, 0x9cba8989a9b9baa9U, 0x99aa8979abaaa99aU,
  0x9aaaa9a9899b98d9U, 0x9a97aa89aa99b9b9U, 0xcaa9a9999999a9b9U, 0x9aa8aab98a98b9a9U,
  0xab988989999a9b99U, 0x9a99aaa9aa9b999aU, 0x89cb8a9989796797U, 0x8879b97998a9c9a9U,
  0xa8a89a89a9c78988U, 0x899b8889a8a8a999U, 0xca89b989c9b9aa98U, 0xabb899a988879a99U,
  0xca8b8869b99b9ab8U, 0xa9a9aba9a98b9989U, 0xac9ab879898caadaU, 0x8a87caa99a8b898aU,
  0x899c98899989a9aaU, 0x8897a979aa7889baU, 0x889ca8a98998b899U, 0x99888a9989ba99b9U,
  0xa988998979989b8aU, 0xdb78bb99897ca97aU, 0x678989997967a78aU, 0x767697b998887979U,
  0x89ba8979c9988889U, 0x88c9988998a99999U, 0xba8a997999aa8989U, 0xbaac99a9999979a9U,
  0xca989979999ba998U, 0x8bb8899987997999U, 0xabaa8979798889a6U, 0x98789aa9998979a9U,
  0x88988989c9799898U, 0x98d888b9999979b9U, 0xb9bb9a89c9bac999U, 0xcbdb99b99ab999c9U,
  0xc9979979a9ba9997U, 0xbcc98a99979989a9U, 0x9988896989877997U, 0x69879999998979a9U,
  0xa9998a7999ba8996U, 0xa9b89999998989c9U, 0xa98a8a8999bac996U, 0x6aab9989898989b9U,
  0x99a8aab9a9c8bb7aU, 0x8aae96b977a88a87U, 0x9878887969a87778U, 0x78897789569669a9U,
  0xb877a889898a4b76U, 0x79a8877986797979U, 0xab877899898a7a98U, 0x66887879a789898aU,
  0x8c8a989989898ab8U, 0x9778bc89bb89799aU, 0x7a8c8999896b88a8U, 0xb778ab99bb8789a8U,
  0x9a9b8999b9a78999U, 0xbd989b7989a7a9b9U, 0x9baaa9a9c99a8a8bU, 0xc8aabc89ba98a99bU,
  0x9cab79a99999cb8bU, 0x8cabd989b9acc99cU, 0x8a8889a9b999988aU, 0xabaa99b98898898bU,
  0x978a8989a9ab97a8U, 0x98c98aa9999879a7U, 0xb7acb989a9ab9b98U, 0xabba9b99ab8a89b9U,
  0xc899c999b9ababaaU, 0x9dbaba89b89a999bU, 0xaa999999c987bd99U, 0x89baaa79898b999cU,
  0xcc88c999999dacb9U, 0x9bb99b99ba8b69acU, 0xaa9aa98999899bb9U, 0x8998c889a99b89abU,
  0xc8869989a9a88da8U, 0xb9898ab9b888899cU, 0x889a9979a9788887U, 0x97a7ba89cb9a99aaU,
  0xaaa8a97999979b98U, 0xaa9aaa99ca9ca9acU, 0xbb899989a9888aa9U, 0x9aa8aa998989898bU,
  0x9d8ab999797ccbcaU, 0xa9889ba9cb8b998cU, 0x9bbbb9a9b99bba9aU, 0x8bbac8b9bbacb9bbU,
  0x7bb9ba9979a9abaaU, 0x8a7988a999aab99bU, 0x98baaab979c8b89bU, 0x9a787aa9bba8a98aU,
  0x88ba9ab999cbc97cU, 0xbbabbbc9aabbc98aU, 0xac9ab9b9b9cac98aU, 0xacb989c989b8b98bU,
  0xac9b99a9b9879ab9U, 0xba99bab9aba899aaU, 0x9ab8b999b9b99a89U, 0x8aa8b9b9b898b98aU,
  0x88babaa989789879U, 0xb88a99b9bb89a989U, 0xb79aaab9a99ab99bU, 0x89ba98a9aba9b9b8U,
  0x9899b9a99999ab7aU, 0xaa9b98898baab989U, 0xb98cc99989aabb89U, 0x8a98a9a98b9a999aU,
  0x889ab9a99989ab79U, 0xaa89aaa9baab899aU, 0x69bb8999897a7888U, 0x877ab8a9a989b9a9U,
  0x98a99999899ba8baU, 0x889a99c9a8a899c8U, 0xba9a9999b9ab8ac8U, 0x9aabbc99ab89a9c8U,
  0xca9ab9a999aaa9caU, 0x9bb88b899aa999c9U, 0xb898a9a9b989ba99U, 0xabb79b89ab9a9999U,
  0x8aab999999889ac9U, 0xa98abba9aa9bb999U, 0x8a888999798688a9U, 0x97789879888a8989U,
  0x8a8789a9997678a9U, 0x877798798898a999U, 0x8a898999998898abU, 0x98a7898989a999a8U,
  0xba9a99a9c9aa99bbU, 0xaaca9c9999a9b9a8U, 0xbc99aaa9a99bb9caU, 0xacbbada999a9a9c8U,
  0xbc899a89c9aaa9b9U, 0x9ab89a99989a89a9U, 0xab9a9b79b99c99b9U, 0xcbb89bc99979a9c8U,
  0x9999999999999999U, 0x9999999999999999U, 0x9999999999999999U, 0x9999999999999999U,
  0x9999999999999999U, 0x9999999999999999U, 0x9999999999999999U, 0x9999999999999999U,
  0x9999999999999999U, 0x9999999999999999U, 0x9999999999999999U, 0x9999999999999999U,
  0x9999999999999999U, 0x9999999999999999U, 0x9999999999999999U, 0x9999999999999999U,
  0x9999999999999999U, 0x9999999999999999U, 0x9999999999999999U, 0x9999999999999999U,
  0x9999999999999999U, 0x9999999999999999U, 0x9999999999999999U, 0x9999999999999999U,
  0x9999999999999999U, 0x9999999999999999U, 0x9999999999999999U, 0x9999999999999999U,
  0x9999999999999999U, 0x9999999999999999U, 0x9999999999999999U, 0x9999999999999999U,
  0x9999999999999999U, 0x9999999999999999U, 0x9999999999999999U, 0x9999999999999999U,
  0x9999999999999999U, 0x9999999999999999U, 0x9999999999999999U, 0x9999999999999999U,
  0x9999999999999999U, 0x9999999999999999U, 0x9999999999999999U, 0x9999999999999999U,
  0x9999999999999999U, 0x9999999999999999U, 0x9999999999999999U, 0x9999999999999999U,
  0x9999999999999999U, 0x9999999999999999U, 0x9999999999999999U, 0x9999999999999999U,
  0x9999999999999999U, 0x9999999999999999U, 0x9999999999999999U, 0x9999999999999999U,
  0x9999999999999999U, 0x9999999999999999U, 0x9999999999999999U, 0x9999999999999999U,
  0x9999999999999999U, 0x9999999999999999U, 0x9999999999999999U, 0x9999999999999999U,
  0x9999999999999999U, 0x9999999999999999U, 0x9999999999999999U, 0x9999999999999999U,
  0x9999999999999999U, 0x9999999999999999U, 0x9999999999999999U, 0x9999999999999999U,
  0x9999999999999999U, 0x9999999999999999U, 0x9999999999999999U, 0x9999999999999999U,
  0x9999999999999999U, 0x9999999999999999U, 0x9999999999999999U, 0x9999999999999999U,
  0x9999999999999999U, 0x9999999999999999U, 0x9999999999999999U, 0x9999999999999999U,
  0x9999999999999999U, 0x9999999999999999U, 0x9999999999999999U, 0x9999999999999999U,
  0x9999999999999999U, 0x9999999999999999U, 0x9999999999999999U, 0x9999999999999999U,
